conv1_param_0 271.8191116694525 529.0926993957617 295.99188056450413 302.41269905251306 237.61384894130174 163.95564692646226 158.03849446221645 181.04888840549663 390.7894919816133 97.46404115150213 524.4964951003531 400.9370597328932 115.80373112223351 168.3827795995636 182.08668229700115 213.0241400302314 179.37813735052043 173.6594901971971 128.94106176141418 297.63840514238046 164.06968848028976 161.68270553454462 431.32359627690744 203.03849105321171 149.36935030382378 326.23613517836026 144.75917796710408 164.02658074010276 172.34840366888176 199.78018638843483 113.20557522093802 299.31323111640114 172.99508597034955 165.4756447022558 183.53169420078808 225.4655676906817 109.86643907275419 127.74870268637197 168.77845168199693 157.6898788891804 205.11775602795723 416.7257432836743 146.17488918231564 162.06002888579903 273.3583164144714 185.73530911101858 227.33840126328369 303.10924418521944 271.39757892997176 166.1700582065277 340.83054812735315 260.11322551572783 276.73643333830773 121.5588948129361 174.48303870625972 288.06495509163784 300.05491184056456 368.53951794754533 173.5114543924479 257.8624147755311 251.25703988096487 168.65783941941413 186.6071384656345 485.94503548788384
conv2_param_0 107.49356221097351 349.6572291335946 63.064011776570034 102.58841691822187 251.3992789474653 102.08193589731796 146.7627893565993 132.61870975648634 183.01349504644512 122.7204845080183 150.77952161702075 94.54230834285985 140.93963876512987 121.04865599299536 112.49219980057997 183.66323847470758 53.55356184526714 54.42594283012209 103.67021886236644 77.18486006170278 81.59565151290603 118.66721707029475 203.9769821760249 63.224847138585055 150.7376644795021 289.75582661483617 210.79087663196233 100.44572896923015 171.32718561110076 120.10348428135528 56.409596342862564 55.54535936047143 70.493679640526 109.41692575672923 109.14524638977075 180.60366654766034 116.91715582743042 98.04013417014363 102.64841614458588 99.55157921491526 141.7173286906255 83.23209853163193 81.03108067076663 115.54729415051656 435.24389006810634 90.97898040484264 55.2560096272291 113.6389006430896 228.28364813889445 128.22807545447498 74.54348096538817 69.88125018284451 65.16787128125698 87.01831450848665 111.33675245045146 105.78089227628553 248.6272196916551 351.1759351182704 98.63140517781142 232.2320137627598 78.71240067331833 100.609597409836 82.37193466336782 157.31448744884176
conv3_param_0 166.5804409024697 174.3468625555669 203.91047489167858 174.96642103394356 92.92814996997627 264.0825930162654 125.44384934302168 163.09801489792952 110.8310442086936 123.1274895867524 181.56248864012943 188.60442459138633 80.33465566333672 167.7489789403118 113.81550779286933 127.4674150252203 231.06864964114357 184.89618154568646 189.667275626124 103.96473124122204 113.37131726569662 157.21112511605233 208.90550610973472 282.24140780375865 178.59408997587852 175.32827002858383 129.85095687927657 184.91006127432476 94.48338060666067 87.1403607887146 205.2227804207637 190.47010780609529 121.68634202148462 139.48482433652276 114.54894838608884 136.23602066443615 105.31802427996489 197.36310570616357 124.69020263457367 166.72550454325042 74.42234165434564 118.02877484872953 161.3144626189858 116.95381285184976 211.07043423001923 129.66511436566097 109.70917512357241 128.63222120256123 134.1979385591076 196.8723595164681 196.46970012435267 135.22642770961193 131.11227088881324 188.35888097464354 93.50030397270872 152.33534752079922 133.43493771656418 161.37306975079383 83.9883275221906 113.14526816627371 207.47085947321625 174.05377442398316 140.23457296012853 134.859847767762
conv4_param_0 175.75519627779877 311.47195262518153 476.77257958427356 403.63007047260874 169.92452844032132 190.48424100121798 277.3905490134354 336.30253657715065 168.9808788961863 292.64387941850475 265.2646783723726 180.90315050032004 647.5537329770538 296.8213770926805 227.18411560583937 249.96904954445046 140.06116816327952 281.4556195548386 170.81062548390318 601.9776268529749 409.523006601321 186.04958315134752 277.84484902020114 287.885781016012 215.44922417986817 299.87501356378993 212.1741860465348 318.8561188367346 476.8905478282376 527.5583032863042 280.0228822438141 257.82334948994827 267.5792529566966 281.9161257402724 409.1044192340898 403.9147847966456 317.54958513532034 263.0511672914324 287.48951881440314 277.13085330994585 206.95337060431814 285.62883658847835 242.6027485634538 293.7428605894002 269.1275928335506 378.709308823383 258.4752447346306 244.65403575747965 247.1940516754316 292.29992677776556 292.9590537782488 382.40628288018706 619.3177706487804 250.98164683842649 333.0727106771937 328.5091288706417 219.14199405962123 299.84889136319026 261.5577155487718 227.63534438569198 297.6036715190012 197.5548438109621 269.06803282652925 241.4205086822516
conv5_param_0 252.60160755476525 185.15555487581486 223.75863083276877 201.81277964416387 140.66160677228106 193.17847599170605 143.99874891031453 112.51960952058668 174.33215546778018 251.66096467579865 86.87465713216072 162.11912977130368 210.89563434388464 157.30358185531142 198.94172249193386 210.7424866529502 246.85084887379492 171.8023731184403 319.82060440313006 207.7258366504015 195.35458092594325 292.65107422274707 206.47220448894237 85.99487753465574 226.2104144382685 62.73037472887677 223.89283943326606 179.82825697934845 215.59934321678674 271.6867462674425 170.23723538184936 246.06651409441687 134.05657299911087 284.01489397493555 153.19807710282726 238.7419971754869 104.04682332192714 101.92883153085955 209.23796855852297 280.34314360329256 171.80238697115007 221.8060300827489 190.0191705907182 161.50508856602454 194.12117472338022 215.46597848279322 179.42806116047257 161.81811962550842 161.07272675867497 295.93942281222576 198.1731362229488 182.1639901855567 255.7694161705875 174.89963695321762 192.89255780263747 237.9155715478088 201.5191427475128 172.27365709503846 200.74116122574688 261.0409030637879 189.44115534661304 257.1848073726974 180.17391351407665 250.74984439246217
conv6_param_0 200.30622891547577 244.09161146259086 227.8350371098282 258.10199510289675 263.64030795351914 259.1438551153422 263.6587728488834 271.69085150412633 259.7249914733617 272.99496196602416 248.0274020153868 226.24678058290942 225.92936799347504 204.8276021448049 284.99988256012506 290.940704573594 208.93035394795496 262.78145841727525 244.06468616757516 207.73736039900427 184.81817293124104 188.24463901524683 267.6043065236249 268.5835618582997 164.49511931862617 313.1077116960741 265.8155610856525 154.60848890703585 203.37129662435402 293.3024204224976 282.0104532953279 159.10038713539075 281.8030382976275 264.9471822603432 184.91115248584856 235.05070469769043 209.89588399620382 218.58286591258354 241.67755635883864 163.77057431285473 227.97908466465177 272.8637903850989 190.4106691850927 175.63205397716337 210.2276920745376 201.99974421848935 328.75209463686866 250.55281871952104 189.34651008784542 233.9276821236841 274.5299694419316 296.49353061752277 115.2926017512172 161.92956286673817 245.3719177311567 224.44072031486283 209.21619055652008 141.1502830284173 300.1625527390719 251.93409791855555 149.49169203499414 179.86295880131792 183.26094191040463 258.8885434540988
conv7_param_0 124.30529853892271 134.16103809489508 164.72819056984787 169.8320895198207 537.9942779417457 175.63419662579264 158.13764279065376 216.99477674261342 144.5270348577915 143.06812498531184 120.37990102968092 177.64689336899767 136.17732615697332 220.5627632547914 200.3510558902252 266.1136375614887 330.9420881828232 138.9470206984592 129.65069153317276 207.93104521069117 195.38575130761888 293.01318005252824 144.10313010639874 160.92143059603586 331.5884179551466 182.28871461135415 115.2957210790266 179.7392866193122 352.430106673177 138.9634683121269 155.26591818814467 79.14014519667532 105.23632648045584 256.3758740285839 150.9302781006119 123.20619115746857 193.06853101179402 128.36114464998846 128.59120853282502 265.32704314094866 131.921251169639 162.54123741972228 272.0717050494706 150.4125713949289 172.4304012322825 243.52530960605984 181.3523061982349 119.73917607646919 191.01798030764496 240.9569255314505 137.37445007994413 126.76214930652563 75.5219791795744 114.30088976002948 128.74433007319377 93.21283110753939 122.89623994127854 143.19420515157526 162.14276739055262 191.0555937191347 220.69407876269995 158.67154716541626 266.4018241849541 232.69591408963117
conv8_param_0 271.5058061316522 266.4273240296414 257.9055345002534 235.4416755149021 223.66026332145458 218.1020391409424 226.96769349877522 217.86435620239249 178.2793108852298 148.48957297198262 208.7832785744732 278.5884656590774 153.0697832165707 230.29418401667857 207.121170427926 217.933836767466 301.546197199324 203.4846249574901 234.64583496916092 169.8664257754841 231.17780673715217 192.73259403430788 233.67664720043456 222.5661381481095 222.09401197492443 195.80569171894308 229.35881149285794 201.1144115450858 207.9739097825236 204.8227584342656 210.0962061612718 267.8575249169477 208.60344220585017 172.11894953069515 184.6354539209114 150.14830735019797 145.7533106498716 270.30698494128103 253.030692422272 236.9540472678915 210.62782382484423 245.76421424549218 267.32037221743377 250.34921912828165 250.39723361661146 209.98361113758304 155.19372112296196 219.33369492522016 225.05840145958493 274.20080647506774 256.4336658464112 226.00715727831647 151.85496202247649 280.43739941985814 207.08578128650743 264.1450580557646 209.22995537023732 268.5329228788427 206.29566658414348 182.4511134904667 200.70258711230852 190.18727253154947 123.44879396332759 205.62684847189323
conv9_param_0 224.1585093709273 159.77221426583776 278.41811788639905 268.7346105220249 204.8786916419131 197.7834463914446 205.10697518518245 143.55867258318588 186.01082939959198 199.98571768206486 268.7284249985165 150.27863791414134 206.56299982821207 224.23421064734106 222.3033689495496 268.5277449686015 174.1623123767832 228.19284620210584 159.89056245558504 246.76739761650768 195.94466775445807 177.13255555525075 180.5162826347622 194.40344153361744 209.85794884689773 282.71805139423685 169.80263855943534 289.39246536047705 261.66580316925734 213.9903523353019 253.4385962491629 245.90674268551695 145.1124508790354 256.5203561176104 280.1204028978248 204.4004856019781 239.1911275817622 209.52427718915186 231.00900029251437 182.90308406271444 191.3300231342775 303.37636816712006 277.27942067033956 235.1428694715465 212.07613338012723 299.50394862722266 224.304295803279 140.50377391324875 242.51234519212503 127.70093414926154 197.41238625334992 267.0841364510395 221.11041696004241 219.1046088438732 146.20554171333 272.18898931348144 188.18337326709002 233.92262275356407 211.40685014864513 213.86038683650986 229.8817334499839 174.04460419654768 263.75252371113424 250.83683823397837
conv10_param_0 101.48226587635176 163.53021205215637 331.1596103061869 410.6963123217774 179.68867426725453 216.89155668668226 220.18049144939232 161.87845849201787 87.81488330633681 211.1789444513933 339.290487721239 115.01421557810406 276.3062595426975 159.7629418127082 316.5719393334284 190.02289881835134 212.01767860099602 101.10187433872589 123.53292023242463 301.0891690821768 82.28924743433429 99.29374904700285 287.9150540323863 97.15051394732832 135.81929197993549 183.04550583274843 103.62506350402131 204.47288552048062 229.42650459809943 164.56683855753784 168.21087249840667 346.6893733120768 259.4869247640594 246.63860070549978 157.49624902530687 200.06518572992212 188.87856643843577 238.05070854701916 276.9987749793132 198.03937539199725 122.19655790649546 173.72246918508452 287.7794368456919 152.35269925952537 408.71243923976687 172.8097688685443 373.6288368976608 387.88923990632213 133.9357921030106 142.34188551156112 191.12503586891305 152.50425095279977 119.2213427884986 228.14490728823716 254.35521642690196 247.98554479199922 120.80922100371991 120.46603837035559 251.0469702785886 150.00663766983587 272.2655592582469 219.704420441245 196.49077154602367 143.25422239655046
conv11_param_0 204.35823842138126 178.19369923633772 316.0871639581316 248.6232451472406 335.9671889382029 340.41077344842324 306.0587853164335 245.5327772073626 158.70010002239687 222.88514540421465 264.10180736343165 181.4565716129607 226.81347583284003 311.92416929231695 165.91196032639402 225.53019409065467 206.98185788655132 264.992275735402 226.78882721142654 355.4404786212548 166.98000423032497 327.66321975698526 253.20479294417925 229.74495788057763 224.61587680625377 120.76687681827086 280.2954955727666 172.6762749819439 293.13603041880754 211.51165425001938 226.27566084304448 218.40599591172926 206.71352029627263 250.53322744661003 268.7501010001379 180.9996423681447 157.12911236662927 191.4446187440491 348.44632721148764 212.73928049669834 202.85228395920916 207.92589128671457 272.09484456723106 261.9394564800346 193.3118521663709 174.53094648697632 265.26801388099364 297.9084021464664 197.17901981584404 256.337766666807 246.36095569308654 271.8165803020897 250.8513676873992 234.7902174968267 190.35274713464457 275.32149369632367 343.32147043366865 234.0103323591261 286.34536180911346 265.9119972099729 256.16118040331406 271.9785440505432 249.07623145187262 238.43566799721134
conv12_param_0 228.67091610291502 276.39792749528414 223.80241668487304 210.0470163989373 192.19591783128394 196.61787564563636 216.2857964499677 160.3682604721317 256.88718368065406 256.53164436564566 290.4179646692149 218.6161254222997 220.2395279299304 187.927917464728 216.59047669583163 239.1769508965264 250.85030449958654 213.97657723268776 264.90775246647746 189.40368660046965 315.86606323143036 223.17334337734292 215.66131791370194 271.2221158838085 273.7507558733152 196.83418495170386 199.01675651208845 183.1683543945787 184.60614747792044 229.26276131727937 244.09080054140406 234.2527102737979 163.1849663498558 173.93121497121453 117.67591200627574 326.89037353943405 280.7327161061922 193.03987941635035 190.14346717226275 214.64536747393578 230.39683044468606 288.1417760904308 317.21777492062137 203.6423875757779 224.0734801470991 220.76404956322898 194.11954765280228 107.52894279590556 270.99597965126117 271.5988685347918 298.54709462164277 207.65324011462167 191.34218789302506 200.88024558471605 171.9048750177798 202.8756353353122 291.55614279242945 199.27786491345324 261.40304714527804 183.64169439052895 245.74114160469045 271.05306884271744 217.66122731468027 223.64246870227197
conv13_param_0 235.4868742463879 228.4513594246221 132.1025559631535 195.10028739823696 267.21567326119396 143.91135190146866 256.81508694587313 140.1292307627553 113.03429628551336 370.25039690976433 150.79046974836814 240.57927095227757 160.74580881106476 75.48999908450007 314.2829775799517 196.78055824666623 123.9676673843547 124.88340355158489 112.76407056584561 274.170956984615 267.1328572924091 252.7491810913294 279.6575359878997 298.405562564283 391.6621690081402 195.9641848413005 247.38005516952165 202.1698280256995 214.65159512844 276.7209609293703 228.7605762125149 200.7324807575035 84.00415544715648 157.37709319691615 279.2527121946252 158.4396881037116 318.2406725347419 277.4667315697509 154.4077330162333 155.6704268214945 192.57926569197227 165.14724211448907 485.0201084582453 285.61595272947596 206.7021098549471 173.6101781684658 130.33580634385464 200.09891112787753 181.44648115643062 129.97956715415822 190.99707324559225 273.9896710565062 296.92925490589556 167.0255819519162 221.3571710333506 122.3456315960042 265.8564226179785 236.9931592860173 164.88987205305804 163.66987133053595 221.05960467727388 148.00444199534698 150.42926481775325 261.6237941745139
conv14_param_0 179.09031539283632 250.98903800704915 225.47506363590378 158.1695026780428 326.86000985624077 255.59903881040222 190.7483380182483 214.12800730004764 266.0197121422456 168.65241939147901 215.1819438787552 259.3380724534127 236.0957907550721 260.43179233478224 261.7455529371934 209.66637414948448 202.28869615279524 283.18763180721663 266.6869304898829 266.57108720189905 148.20138523048664 193.42534046778707 214.0199070959333 328.95318602866377 247.90193039941911 100.63271950094408 304.57788629989017 239.84963959624514 209.09842139853419 268.6589463966056 199.80071863151315 198.57296968441932 215.00400218847923 230.75251626374174 204.1936117981327 190.84989455232548 187.5439267972678 138.33753750836973 246.3783044362646 214.23832778174162 226.09505216554305 238.32682834782076 222.85861589601456 254.21305619377736 247.370347714098 254.7950529944487 257.25889787467145 232.24150602172602 211.05853773634433 203.2162018532514 288.90327484642694 215.45647897427372 260.7074627484763 230.38395104417992 258.65670112397635 262.30114510655716 294.80810716388316 216.26865099600818 155.0743995333881 194.33992775505453 229.2660422798576 201.3131119472126 237.96794417179655 206.4709640121237
conv15_param_0 264.45508627375875 277.68825609121626 212.04622667431371 246.16058258560372 231.40233628011035 248.08605475784233 161.72352199932692 263.0581497254022 255.28128955061368 271.17173683019564 216.59283252393777 269.353037876432 289.147408144034 214.3599108840119 207.01182121663163 157.1243848094134 218.2709932688285 169.6141563828726 176.7469967327578 368.92982571421174 209.86985507923015 197.52239161284652 234.41244275576756 180.04223691769838 207.06605880048016 289.7933047027244 261.6821927444972 212.18977976725222 234.8599124979443 210.67453636070155 243.37185009335298 168.23674510926986 272.3387261316891 253.31521069610648 275.0968903764731 219.3458877685826 256.48331725928773 223.15335910929957 226.97610744660906 242.77609496166207 218.87984563095287 278.7917210871732 256.2042721184892 215.84568483160604 348.87836884504446 241.64244601705678 247.1940516754316 185.00245867499325 235.08177272768395 231.75866541696257 218.29671009911482 218.06779762321455 238.33130692118425 169.50893250586302 262.6238183689442 162.3512145940249 252.48286494133083 233.9521088621213 157.81870805627 210.57237048212596 246.25791066621653 234.2529678146387 295.22587953858886 196.04799209443252
conv16_param_0 233.69389581146606 151.7994187653637 185.48603226578422 170.45868279444514 174.79598571775 202.05487413357392 164.43064446400496 147.1861082485728 161.2207577435972 167.51665094130834 189.78455300737733 187.4824398636073 183.61194305608217 127.27724187399657 246.44427475371262 172.00580524903916 182.80213733806676 126.84490297200871 352.35297171138563 189.4716801739787 193.26165237624403 124.9404197779026 104.89317695746018 301.02521359346474 204.97698352175505 205.46062808836083 137.62285998778083 138.0506577714634 287.4668478141718 304.64005014457024 173.28736467531428 260.8508339164314 189.51232782554138 142.71390238993322 151.75478859091186 277.528007782275 160.2360563955216 197.5965418530228 109.43352627994005 175.8427902362857 282.491278918494 158.6277215084232 211.35756896775942 310.88231935281465 268.7935482678625 120.04956527167619 139.87024817096588 126.01915589481256 153.35877755566122 140.97060632461026 200.18386682810103 258.3612549259552 152.77638765491355 98.47253790513444 146.65488438719717 301.4767152847752 160.78318098455424 127.83578703667317 149.31888536560206 145.02157498250278 119.57703921253031 110.39155242684011 127.54135007142641 173.41929300292256
conv17_param_0 222.7997746390272 253.45903651835624 261.68500488777283 211.32138814534923 322.9835409557795 280.74882536347883 183.5184473940063 200.97276599453346 287.1113483897787 182.5780306859042 272.91441564508193 169.6530647896466 202.56116241064834 211.87083982117665 150.71826916785474 203.3583888971446 247.5474130809946 271.5056504466093 221.53956923696293 277.78408470309574 235.0522345670146 233.35965502259498 309.9167657744241 256.892851577399 241.0744817994803 223.19845149536332 294.9108525398977 190.47926860186655 213.17096145446047 272.37602939663145 179.63303207704968 219.34040082131702 237.0144602077872 182.18483064266582 171.88289507777662 255.1629788580141 198.8091299087358 316.93431155722385 224.12064253543878 237.64443204691352 199.80633950677137 189.27869037699276 247.4905383097517 240.17818604301462 192.69436976370662 170.10790222948697 216.50508501408697 242.7059359972243 257.14099730749194 236.6629056034747 211.44480182977054 235.65423709618054 311.5245506688247 272.98658517195463 199.5987084156171 215.44369082128927 210.2862430556995 318.8773539619984 205.7891044236266 247.9169583670179 191.52918354987983 235.88843851226108 234.81283213484411 204.28313843225652
conv18_param_0 193.00985509493933 201.09030614012065 218.56367285157492 226.9288716939278 176.19420119651602 190.39385880461933 170.40035060444077 184.9673994097937 245.2663667351343 172.3266586036981 188.5209877277251 247.11521168316648 214.68987719175567 179.47303903111975 232.34414789374074 239.14938098243442 99.02413314990044 203.4469707957515 106.43200804978608 228.84303125292337 176.18510998450665 185.72475338177196 160.3625394178542 137.80221758262255 87.80525728836656 220.08015202599762 223.2732482423847 274.3820893308224 148.1150120336567 158.32725365053676 210.7004944084488 202.51357027865942 223.58914875512104 185.01233805499626 201.1572840912513 239.6432717039477 235.13653780343387 76.32407677590764 112.61777377632731 184.53437640655397 95.91106149596857 217.7569469029081 130.53413288490222 221.43290173083372 221.61362690350313 193.39809252891274 164.24771443755176 162.52045854627198 187.50578562768575 175.3058531178834 233.5546725317318 145.40087323514226 155.71536454437552 74.24486409819541 126.2150199389156 221.63485790790514 217.83533366982675 219.8377095594293 237.56949887559844 238.27698892245158 131.19412287569853 216.4257619317711 143.33241456100097 226.28666707519287 244.74646493072984 244.00557201824418 237.33943067447214 233.13493512134863 180.61795040485273 212.969354974774 134.34271114966737 208.6396993137638 249.91618643149334 173.4687084790096 163.64978330121332 255.51381265822664 110.5236790834037 301.3935369832956 224.70838008811555 78.21094596086668 199.7852253894403 181.94823401783816 233.77166150070926 168.62836721507853 132.12640217612588 226.12394169549677 110.249414914584 211.3041405847118 146.25272919728175 236.95544390338404 202.57485506676622 223.8497707508752 185.41033252890767 58.020275638365426 165.91645628998 128.4721770876319 116.81254797731847 255.30260936404295 139.24921665608267 211.28320838538053 151.50068789082485 147.54122579680643 119.87595725504184 116.6430738190164 177.1406402816284 119.54040966437 197.7760111519826 100.83749873403345 145.66876075275525 110.13507553019693 218.8038960469494 177.21552901382978 96.14023554399408 74.3913326311444 184.26762354896277 147.83198782601323 206.27639384992858 171.41110988740738 194.52315240309363 211.65194024454084 156.2954124753834 225.08707421808438 229.49181529772076 179.00658509025072 239.78367114928471 241.8585047452684 206.5795421427005 192.7544756681568
conv19_param_0 235.41441374452745 213.74136359897358 269.6318571349028 272.17930592761996 273.62173844758433 217.861950357032 260.050319774151 212.93823820348507 366.21606923485786 261.8039254619799 277.4868949795952 270.35277231612207 298.93126565799827 264.6926436611974 257.5732473751048 227.79404281942038 256.4747345403631 229.89954260843425 217.3685187635485 284.36283798513915 284.18838991164273 246.45601917879395 229.05378743330886 293.2334567257976 330.796401848958 239.46613295786705 268.06224581058865 270.8169219201977 258.15085598916176 224.72207846886965 242.34687243018345 398.09720907738114 221.83974654102 289.4201782318704 188.27557799111352 277.52715829563647 206.29095291958376 219.22255420512593 468.68339714919404 241.45870124689637 258.44177702898986 227.1381007636452 279.2775286339868 294.35794215587566 268.66385835794637 306.16189099910895 218.92381213358473 289.2734782827984 306.03245382004036 326.43405946958876 297.1461783389081 268.0473403360652 222.23858487006953 246.90496939509333 340.73037038304506 252.56693406573217 222.06986920043937 282.45437382068 310.964351000882 249.1874192017466 245.25309808505872 249.31673379800083 218.4106749983727 295.38551901367845 270.2785599867671 269.71899560579755 319.08262143844775 246.63625966887153 275.846955439206 283.4093794029028 243.9412637646594 233.1214162080548 238.95702498672995 254.1010666142414 208.6502009085711 274.0792616257262 273.00751937598613 264.57116703259754 277.52370618003846 334.4105103805923 313.20606859731674 269.1851047231376 264.901527782345 276.11766695465826 231.881142962613 274.8415937126773 263.7159619213965 244.1527816339727 298.13741732927775 226.29971733596958 215.491234690151 269.01722799712564 296.59024998166063 216.72935988896558 243.9595862076862 230.95651630998788 239.67130608712887 239.73033450983525 339.95869706559745 297.7386605294148 234.73349307545448 209.80789957295107 310.53649794822377 273.70852179346304 274.4451036098947 250.0143660142008 276.37385316935917 251.81836277075237 202.51116431259751 302.6035847488083 258.3819173221591 246.56516471861835 258.70292956780276 219.932810816859 257.84837237563653 237.63279681815922 267.3547030325852 286.5507137891238 288.8389874927416 293.3169761694959 260.5643765535815 279.69444809443553 251.74362469790444 264.41191447137413 277.9944188617085 257.3968832444642 237.61421991967734 215.90486960426915
conv20_param_0 194.01722083167002 205.80035465127006 197.943430173615 169.56691227678405 271.15560361209685 203.9909450390293 198.35806823452265 205.99840882734404 235.31275806106936 229.27499756543335 188.65385402714156 235.57063012382815 236.73416412437734 198.13955931261486 254.5513057855979 149.6118706096804 214.35348449867925 235.1387694180369 183.08029645393947 225.65341616551328 253.635055646699 204.3672745168772 210.6623720291994 227.83545126884192 201.59144188394663 177.69781421589897 215.4420787939082 227.69365331103745 233.97484495246394 192.97706109511955 163.15681346294255 231.05642164551972 222.19253555466105 267.2074630755189 226.5569918783386 244.90768742530923 189.9247596443327 184.43368089719655 221.35730901301866 226.5547997371985 291.5049662202351 204.24184032011436 264.9741178758808 155.9124293888664 255.63249499477357 153.93979655039203 254.0365522049083 212.17057319439473 203.14348816347382 194.16932713473298 192.92708741733824 205.65175609873802 191.54736595972565 202.243036413698 259.7928396422656 153.2767753547055 262.4031263156216 177.91536725046146 223.85967202298372 129.61268522765977 164.92328555420505 143.9904189590214 187.60794838247958 226.5360116960146 142.1926248784756 236.50602524114507 241.29638426834316 250.13132612168718 280.4383590924233 181.80470613973637 180.7059385472752 234.4983264241628 216.26676318642694 213.07320007840093 215.09887502224728 227.9423058551373 210.3119394281333 247.72648901691468 199.7092739637986 231.36756003572086 177.9765357686484 101.82592354882846 214.24535045655327 186.466286127351 262.8509455086481 232.80460489986274 263.7533889119683 226.51390360829703 265.5131058615514 214.76280227165884 286.6361568082171 246.05713677291848 191.9046710322363 224.54368007928295 235.31660429899068 213.618767595774 154.3173180923201 172.21183535541064 232.1987843138409 187.60619740458478 267.28095380890517 73.5719932946687 277.9789867985494 232.72694735517607 187.7765255463697 208.0556083984805 229.41432627685694 170.58513575235727 205.81993616094766 218.16380820073098 297.24487905621305 276.6228475605248 270.36170866510656 203.92120838288108 185.77712288107736 202.6668807438319 194.32142401140516 215.04149853406471 144.66351843807595 151.91223553219814 253.71596638675476 213.96140733100043 206.5085650833422 248.07828478025047 238.70939260983405 212.87507486871812 122.46162773294883 192.33965924018347
conv21_param_0 311.8527898863227 284.4577089214877 199.82607128236896 402.58643707071684 273.0108425607845 206.67552380209648 308.10437457871114 287.8179799580303 381.5994357066351 352.92022208382474 330.7184092658615 260.70936078006764 249.96772989347866 373.8078836435904 287.6573643512369 299.2220393703226 308.6559847710666 296.2245054378102 313.07304606723653 410.9667897518805 452.5122043810533 430.5071454635752 395.9582226032237 349.3383719753003 256.93880794114216 241.59594942771517 243.38141305860074 376.269875119819 319.7869322249461 381.44941424409484 303.8749511358517 268.80129668132895 344.25233181901757 323.55502670076385 318.9648056700026 279.4027395338209 244.63968163755501 287.8665865951337 400.50187712954533 284.1590549736153 383.66649008253836 314.40285690065116 334.13209884490567 399.77073001138314 370.054398544449 563.3193870764104 333.4971725529228 237.8463613367267 306.31849637995515 332.3742028978725 333.1841953231914 273.571078769667 354.9154664270921 350.9747739392916 327.6120581845992 304.71980071353727 178.60717437546774 313.3269476022664 340.08735144466857 268.53058771813085 345.32937746249235 436.32020035405986 372.7990052191178 314.9489640690686 308.8868497840538 316.1635679678766 260.35482931273475 276.30642078188373 307.01726673325146 353.7132024917723 272.3719730635452 270.91628118398205 410.2996971528672 310.54982719550975 267.93278877178017 179.01935397792374 327.0803560340364 321.9771899637775 406.4758234701832 357.06603975709794 399.05080470570255 380.59114824147485 350.7822166283966 264.9839050154896 337.96853905779597 269.44912786231134 321.70682295125977 330.6439168034323 277.0272443972426 323.19145892510153 366.4913392666325 251.27526286412368 321.37342221012904 393.7966053234553 298.91618931338917 308.3604522654555 354.838480782291 238.2093792298192 380.14852313538535 295.3282614238377 290.04123508977887 242.86326248028672 264.98476183653895 344.2590063358201 326.39250544898596 304.0488565809712 277.30801999131387 371.7894272144607 366.0257325259616 353.83796571766015 280.08468530167806 355.05258651704077 276.91714468315035 356.5193946667992 311.86931358367013 325.50425654308253 406.177035234946 282.6791931189774 358.26898307454456 237.21283739853328 259.1787344411274 334.1944900345816 268.6139510279933 402.68949581185854 274.76969805020104 402.59898847002455 335.0574577696314 210.53342073337382
conv22_param_0 170.43649849761644 172.04474910223223 186.3841266669944 280.55583939066094 225.93348857134373 172.81665082228182 205.06066599522742 246.10573609325448 191.50067717533983 286.59160751958046 127.86034262651847 235.84867210303943 170.5606793781098 488.1529689505911 255.67688165143224 156.05114612691554 227.45569175005633 216.04802260431228 171.8359586485236 218.34030837670255 310.77551171621747 239.21663910786734 141.49105448800276 257.1829292705626 185.8831991913883 189.51595190808197 168.48050777263938 206.27226016771442 225.2390237931059 183.63612319432636 277.75898982435547 183.174479892477 147.945186775808 207.6781350487643 189.64381053406018 181.6505324389769 129.32306779829523 204.67157664359223 260.50039251606773 188.95479606919872 218.789853734593 150.83303957778486 205.63653295169038 380.6402715548493 197.72115453141703 502.06400819624616 223.35710917000446 116.53932532647266 156.61285297598437 182.82455159769145 219.36194374665405 105.98376091146456 166.68941381861788 218.14424197997013 204.43486475600392 153.33288658452477 117.45818066994897 380.31456079887414 192.48886730757155 199.6895278168069 357.3826811906022 169.209642546007 282.11731964330744 189.7958795881637 156.24058381460378 350.99249462793006 173.7874357780816 191.13557999565467 164.63217079228423 198.00451895371557 159.22237006643425 184.74891209864575 179.54186433949698 278.1180459848207 166.5750363665972 189.58195130462542 274.53048233250865 175.9343356614197 177.57356354571675 315.5084175428192 242.17405564110294 167.09424417863747 232.27406403602302 236.13773414630876 343.2759761674683 244.95481990006166 274.21400442097485 118.85271812506568 175.8491466963866 148.0748165089127 180.98572852800277 111.63162920492974 172.15850104670793 186.97586187258037 202.72710105021588 168.63725584395542 302.6517038684103 127.75861459640913 182.62225394624699 133.9464179484012 168.9736022268571 156.03467859714064 264.4170989373274 169.78803867716337 161.40701708960853 146.6895962643869 292.03811437451066 170.19831690532195 179.9803702294935 146.35540840914274 258.3825753147706 136.52309788023655 206.13121522628558 242.32738584619906 142.2796278050427 307.6415466293846 186.4213561393091 169.20793596880364 210.634070400422 122.63007784946157 162.67787046324077 125.67680367227373 180.9271293921845 267.5877044404957 187.55157010038957 168.05590983264105 175.35633530973135 152.62752006207373
conv23_param_0 243.2729008598844 249.01181303706778 287.1435598241458 324.7266277012146 242.27180979804413 217.0215199710734 286.7580200015369 262.6176358173532 342.3213391090948 281.9702780112415 295.3560993096018 336.0647970467017 270.5425178179841 305.2738461608996 255.41748255285808 317.88334699554747 331.34678243371275 302.7732410479529 268.0862936562119 180.06145344402512 273.14278586725266 324.5288895637935 236.45148636504572 282.82768854403315 204.6649906351185 367.8883385342922 215.87787592292656 276.00850342493305 246.0947071953061 291.52710197117125 268.43263217325523 355.7105005733304 273.88727054040675 259.1268680440511 341.3977866652417 267.32506765598515 279.72995605100795 290.47066097723786 257.4091505916303 165.18035024144385 337.66052090558736 288.0274943968163 290.42101269489154 302.90650215624936 271.36766265485596 302.7545697585942 243.99123800759833 328.31839407225834 319.2987993550205 347.1125989828737 336.405863362667 286.96520124776356 328.45547497105 288.23312249464897 224.30299709460752 236.9913404490954 216.01880301794804 282.00485456649744 193.45106802244524 248.16534212052085 177.22618624405553 275.38782326015183 259.99553419635026 324.26211750421953 330.52430642382063 250.83240885735805 200.27928588106263 275.4120820965172 292.70641368823874 260.81250211916404 279.85781526891856 258.6804256832332 325.3236251083671 249.92544978703557 257.8789867747705 234.14366687633708 301.1113163076716 227.25891738176162 239.28304829534224 239.89033463401606 358.3858894581261 194.87033822115848 310.3107987671784 251.48912841286253 216.14364384195866 287.2299763282341 227.619537767188 252.10305300880484 221.23969780162727 270.3155238817532 319.2567218905059 322.5028384841126 218.57551116376158 211.87943582385472 266.2068643607219 317.1003173672434 309.2562034115035 351.9773672644857 269.5190669585952 290.2555025367821 275.62021080283864 187.5916457302802 318.3189297452806 253.88511229916958 314.7612075082147 268.8214921295166 302.87481188541597 268.95009518370995 264.37533367095153 207.96142608773394 226.4360539266244 194.66646664390524 275.0431977357379 311.033258357324 327.5042203295783 221.93020807131077 268.99887095806963 245.20274674120813 411.83277440254517 326.99607612031923 250.2323784711314 355.34370765275816 281.63858411840494 243.84425097742832 325.75482326130395 337.02846598335316 267.52917668888347 362.6242417837104
conv24_param_0 308.2877949827966 290.1025631390182 320.1629603061186 337.8401700691193 228.48286335442756 344.4498679197898 294.8918119017489 335.59730209375573 328.0009692063022 248.85551940884991 257.57802700565753 311.9322748720111 258.83320863652636 251.86991981016487 255.53028334129752 329.3054086322051 306.83610577526105 261.14045022968145 325.6219773616462 274.8974952304003 243.98855580670283 234.21251509098119 310.94163823880336 264.7342790035177 353.1937451726507 240.1064628414199 254.6231562373104 268.8108598906315 289.1509200534114 267.6675410086489 272.296230618505 329.60262282889215 249.6602795525837 302.02268005303347 398.4863720297711 263.7716084213539 314.72933602532186 290.83935668281157 279.34784752559545 245.89902348134123 271.99817808875997 237.9539652546045 321.615773932884 260.9789383883586 300.8393716461972 270.04023494836304 400.87154671003924 284.1153291138194 232.9385548932309 308.98579847144794 330.28375795344044 289.3023664283723 315.69783865351064 273.5869386417625 238.35228914605995 403.4631473874434 326.24595076207527 329.70067409944187 306.9212546324522 227.51597364038875 330.2067489084125 295.4019204324914 237.69087829565433 344.9817438064533 286.5333538636567 341.0114859562253 228.04433039110978 326.90138208123415 297.12139946029686 348.66616522295004 281.8902787704795 341.9633215873906 293.11877072904184 229.4583769123807 171.48872577911158 346.31828174508973 242.58965605929794 289.73642142536374 292.4382737094297 293.23158020407243 228.71951828102885 294.12401596025535 276.1388694255371 266.83030572997785 385.77387005957866 332.1703843254465 300.3194497378362 286.18915276943613 239.08543359533496 225.78237133188202 366.2656125037721 335.52096562727445 297.1308464382581 292.171766367507 330.31570843568306 283.76186795104695 267.24293804797605 288.4223529017615 308.24103314177853 332.3993769500051 252.00385236997275 277.6456848065774 348.00208209374875 315.7099773949553 268.2147173995071 335.8282138349395 351.2750819988344 322.139755043293 238.87009438854844 294.5320738267358 407.58917232025084 210.74765608602615 328.5796981477102 338.67686768633945 316.5290021961018 261.66941834024817 357.1153825976877 355.4850435879539 319.4183225064436 295.37829150090937 419.59270308298386 286.27680345310023 248.97302669870382 269.4044294875515 372.2329150420724 311.3744996643239 260.3329277518132 405.82159616901913
conv25_param_0 181.12608724628654 263.8169395544433 178.24584366865264 181.97449563444442 231.48389036907375 217.8569383498524 310.3877813604593 169.76222779126837 344.0644669612637 244.7160784076815 237.04177738854997 309.6115266917621 132.95490348271906 212.24054918807053 178.91740409239054 185.65306446438376 246.33099284720865 129.05903316922831 224.59868740820727 157.29123794408048 299.2666930533313 118.1877077167515 262.18653111974425 222.31758754582867 177.28306121085456 302.8106120537645 212.2483506399507 328.13644595128403 310.1386416122794 169.25955163314282 176.41968333313048 264.3938360573311 151.47264219827252 248.84961934543884 213.19184276261055 177.01932916963506 250.88252899941068 99.277658181909 244.6297386751021 192.81414797479695 349.58528927492404 166.62977512673154 372.73845200038204 116.22323739895067 176.30576144173938 153.00804067142084 172.5564017284257 314.0935831539503 221.9415816354963 178.76874641427406 206.28921530944643 200.07534912371636 221.49786159102285 253.6513906856519 118.52944669328485 258.49827743149547 267.50242439425926 190.1373587683113 225.60892700074447 229.50306247307196 205.66346774567188 228.78243722406899 261.2079512799053 156.65587168064914 256.440393976082 230.04921874519204 261.1404662324348 219.89824171725488 314.63743073995613 163.4071685274464 174.55107788876984 279.327705719246 159.82456271158014 172.31191411133838 151.00636341034797 247.75563997901403 162.11699581610523 150.8159895468916 215.35153902558955 240.87855481895272 135.7758272474314 267.80456748253783 235.00152612113433 290.72024806452015 226.91412965642746 448.87122762444676 114.29435382125097 267.26377162519515 363.3566384863045 127.62726505965135 213.90719144430037 243.71358027402624 260.0170934455193 229.3976048064074 230.56895962712588 227.2862867323004 177.59822213938907 271.9557019998901 214.32073317244826 220.31832287668044 267.89792198368843 201.84640848618207 279.82536176449537 236.1791164952442 255.4950310101706 259.7952312044991 204.86494184629993 189.84052285951157 171.38411393827954 173.0462977649425 184.2530912260615 458.24447366725985 259.9450846164019 226.00737303471925 186.082713678108 205.30698027172284 285.8758646135599 249.02031098285298 167.94143703428944 119.87931603900176 238.63862401566206 136.30415610952892 126.88758224115178 385.54979439185706 253.62334160926721 192.27941262864124 162.26875758954665 239.9538216137299
conv26_param_0 239.3126649221728 304.3790671489023 222.3043662795332 355.7934794324788 273.10026660104177 274.90877403017276 339.5552427795924 235.2009602731577 231.3158421724408 256.622372472513 299.26005194443303 331.53901542841334 329.55225557475933 399.16567039472454 289.35847029280563 213.10395134759563 384.8238988519615 340.4458828973236 225.50434385863682 256.2222646579088 348.87000026688713 295.34518868934055 212.2092434390323 317.1522844362307 211.87981507533212 366.61244413809857 253.28280990318888 356.80226161077474 257.68926966954933 223.9729286534797 304.7389331166066 169.52337652438902 294.96790754146923 356.6659363297902 289.0197228541585 375.3200272184144 314.70720878501186 229.5896902935263 319.3069099308315 283.31646833997553 283.1415141188282 313.63748270873805 298.46719717847304 323.71107441913887 283.4393515514656 330.16404983483324 256.6726844687053 344.88226531623394 311.92914675331224 323.27800694331756 344.55048998887133 349.54027021659965 244.195174011028 295.92092725591976 251.7923838794747 260.9020510265418 303.53426556311797 338.04655658252733 297.748021977139 249.79131544326307 286.21598636451654 305.1457922817982 247.48806608644344 226.96766932166304 394.9517858877315 280.39226531842263 242.5548324581487 303.46315142120363 324.3434632705008 391.9643471174418 380.0893898617745 319.37937311925623 361.4956056369188 327.84358398564245 314.90683835863194 329.1566083701645 239.5195944130624 257.9096240537068 226.16421699513822 262.2408561823646 286.76593176641467 233.4737764387133 306.99963863858386 335.8003479345709 186.36924230158803 291.02944193664644 316.45745051050835 237.8221233845177 328.676583958126 246.74627930385495 257.6273594182212 298.34754604738305 232.39678290615407 214.77336644920933 317.8402193533932 228.89684579444273 295.7088048012739 237.42765810475868 318.02210341724594 266.70253632007064 297.71946100183055 269.73210708789327 411.97447301185747 287.4940185314142 305.36996806430534 351.16615373027827 265.3026784133959 271.0427937714918 245.07315331604588 367.5027973127377 264.0682249995275 232.76119267493223 278.3966367247787 338.2501077913971 268.7487281394785 216.17144970891462 292.5501180556371 293.75391638537224 396.77652993929377 319.52269718511354 341.4966605727853 291.9559616036661 289.80814492131697 356.47570315151376 224.41481194375692 292.2205522714501 293.02210565734356 280.10543353865614
conv27_param_0 300.0070868311409 308.28121580234875 352.3646257544904 343.35682323945156 276.60458697219303 247.72611459265994 353.97510702120223 282.9626421913861 272.605208090978 283.0981948641622 254.60815615951637 313.1988174417421 251.67865173317207 282.91582765011543 405.65884131603883 269.50328318186706 180.73682517601154 297.1078308391057 288.0299668138625 279.88375040466246 347.4654775002228 347.1476622754013 317.76831065945635 334.83118231099763 302.14315546854135 248.65028616227465 361.59041807800685 436.33494334646 327.5695994129685 294.90521968344876 309.6019892234654 348.34415749548714 369.4203396777434 308.09054164747766 242.73322597373243 294.2509693425167 351.2762112929842 298.0662865692984 234.27267136779224 244.2571521263388 395.34384290051287 259.9932658445387 256.4602409289064 285.3527487434245 198.87047585500187 255.98958888306663 383.5430057569979 270.7552012874017 323.63228211256956 242.39958735198334 339.928650137785 246.2967381819363 327.664529864255 248.77526765415217 249.1387605281768 198.02027092459304 282.5375034683903 322.15604737026763 355.64094577138735 305.0676094187103 310.47810263144953 376.4967954489031 295.12694104556925 221.28806484394758 336.7967797096162 317.1194549377919 300.34749566103 357.94950704603343 271.98422044403236 373.72497576635794 361.4284602976946 244.84785475798265 297.6867879759602 254.2597881131074 233.34991780701898 274.0645960598204 387.73151670677964 231.07037870397966 319.02662839416763 197.21208940612286 253.79550792716984 217.3667225783837 368.8345096638089 286.6747221118958 201.65087200702155 298.97600039737995 323.60175886828574 311.3783447368896 281.9507822896486 283.96415428161595 385.81169541700837 446.9965824490333 273.18181581572674 229.4661857443849 449.77768864952793 299.2736076856073 222.7736847013794 359.06515132990796 325.01419284356206 315.0782276529811 479.0088730016581 280.92727898880725 300.23210702642746 291.7365208330766 289.23703756846146 342.27808890303953 397.39300234570646 347.2272313197463 181.7641960675857 293.1538769782444 202.34079416266567 298.2128809744829 279.2414950010065 310.8411610400944 303.29764295582424 241.5948536721071 328.96560369066583 327.4874832516103 283.467482126017 320.79507193288725 356.27846421320123 330.0948951405382 297.12224883505337 281.5781772879942 285.9672765950308 284.12103090005235 321.840965245072 361.842890318987
conv28_param_0 285.2092831747377 235.45432004385734 349.69255016137146 208.9629334396174 172.30677224949866 188.96573892192032 182.33454535621235 125.30439059801776 165.6267201492105 222.78302512859887 194.49293124800153 154.9988624091175 285.52744352400936 236.32332198137436 433.8404798598814 174.2472566587202 125.58567661576652 146.8860507687728 195.97225952840608 230.8478681712813 239.45434557696893 203.1135111020021 309.297728758164 361.60523797361157 285.2733588530404 143.32535699556735 265.65126341998007 260.25794639669886 160.33350592943225 183.4070318011012 229.4842271670507 309.60819750871286 306.9542838015511 241.98471981327245 241.56677832497124 160.0761403277588 254.2632167069773 225.7972777452853 255.6733994871908 161.081932674956 208.89608473231783 244.68912757627922 169.7120218624936 295.5892632625981 125.13120807659108 404.0733075937372 364.6004182616568 177.93346375790966 222.0146128874785 203.60296290293928 201.4866326736818 156.08215931437454 295.90226963729964 393.06922771824253 323.1436444766369 95.6436606359317 393.64575093145794 259.2861107176461 243.8586793605101 245.60466517201036 229.93777464676864 306.58105272366663 183.40930520302575 278.94740671795546 177.03300753719472 194.52789417685287 198.61878303272917 319.3942383593916 182.3352162972465 235.0397887505335 223.50841933019427 190.10968922107102 204.1337493087621 154.49279841828624 212.15025055300086 293.00703520048035 255.82238893590417 178.36639345195482 249.5634885747774 136.98693507204055 270.46334329611653 232.90980743324045 246.41776839413401 244.8875335531227 233.51174788391234 166.23065211572276 230.29714608363088 224.33780768705543 148.51827430748259 177.02681524012914 267.32783468808765 247.70224018314124 261.1761412447879 355.02353908762876 359.40990156361477 135.60095166671505 233.4667668889527 161.45781195204003 227.70543061973157 219.9493161173215 366.9022411758056 227.62950784014467 274.66779367737456 215.7024940405368 336.7309386162861 155.66091927697633 243.663886884125 324.76157097734387 115.55567877407981 176.66098985240848 74.34060573716407 230.63579625179807 225.89808525260074 396.3264040439419 266.23972874043386 107.5425761222183 238.49606472047512 149.91138685660968 106.79557172874578 192.26759684908407 216.2002279801032 220.14952929967822 187.07406423082168 239.01122453088846 127.08568723762227 243.61738910908818 211.37182669169616 183.9335779673325
conv29_param_0 193.0331987652508 306.242066324987 388.2679954028275 278.1647204855746 324.1791602131266 278.8485843147327 307.8890914792128 250.57117542892854 344.1628904620551 273.0966787137566 415.4711561673111 355.381046406967 331.078796966428 331.23142602105935 323.53151830072596 331.2408235709929 338.90880379248415 327.92494516773496 264.5469573466965 370.7192417007518 340.6036792343722 227.8491924568639 294.9583934388671 247.80615190551504 197.55229779600097 367.2782606642154 234.59328702110804 301.81070037308007 342.0287542787577 318.50457597627405 363.2951182078132 280.56228583768467 239.31589040585075 308.23276154137034 287.84062860842437 359.3501346062141 239.7576068826553 287.3845524694064 305.8049784762427 311.9213838100745 253.78205610130385 345.4551564259256 272.4090416464825 269.5088055889484 166.69329996191578 333.2403434959836 273.03869053053756 317.98831056590467 251.22614092839612 391.84504852762007 332.23678508280517 356.9938604010275 256.8076272370261 315.5455405613338 237.584651277252 344.08241352082996 234.9929731721485 288.6671598574078 231.19451280626237 305.55858125565027 279.58014581503295 301.7274017910859 286.0122654554148 246.84613018565594 399.2126374672304 223.79773879573085 198.27526371172556 217.94562924028375 199.2051667720016 314.72970793830063 334.97180834079956 291.72941086910924 332.90600062543706 282.24845538419396 353.9743131416409 219.2648759454592 391.3075572249074 349.39115933333346 259.2350213813193 262.68287478520773 247.44966672728916 356.71687067148105 382.87771292578105 335.6014250928839 178.00530664239244 330.18730398238904 373.1185966146073 261.25120422316627 306.3910433484427 308.8428382146453 302.1258041698396 263.78470320751177 300.70942936511085 266.9331812778014 334.45875116678377 325.0220757921369 342.41728193623715 249.91949888165848 342.49290780455345 220.35188477493762 257.4485726068151 185.77432067286946 244.38235199325223 313.48467494619564 245.68869156263048 337.2176363959082 209.16529702275838 332.4080111539735 227.14759282592308 353.48604707337597 302.15438132102486 310.3086973117972 298.8020652297229 291.57447579495783 284.3646027128731 224.67916403617338 286.0204048840384 251.69889829053884 277.3165919147106 330.6084144684617 266.4352031529467 265.30755100091756 264.4954649101715 340.1509549205959 297.14213802236446 423.05816540795644 267.6822865704415 348.94353181473673
conv30_param_0 296.9519324534299 310.1492956704995 258.05391841526523 324.20700525124903 338.48557306306674 224.3671476605581 374.645248048974 285.18076768230526 264.8097229753402 451.4891037024347 356.30637673946956 272.5579747751279 259.69912824871267 336.0552562947871 241.34011398803395 243.2969847113993 342.8568905466432 235.85921946962333 266.0147635438398 232.0859561788356 290.141829863861 327.1422006407251 237.894161478367 353.43890387326866 269.8110760866964 307.30889931838266 320.88930542140446 248.4863025648346 262.605045028612 317.41856995075534 273.04519853832136 295.2267385635663 286.6937000504306 321.96006434950914 335.24165222170285 361.06584716642453 310.26405376010734 352.4990234216671 364.6288388419668 318.5004100641162 355.8364690280251 315.5892162629785 311.55425022349897 320.17200489174826 291.32453574265895 284.4507404548021 300.47345996182435 365.7226909673187 360.91994790247145 276.40387950165984 316.82010227666086 348.2570458421557 362.6024268779365 250.55877035952906 295.46170581299424 254.76311024081957 345.90614278232573 270.745258414368 256.86638804899195 307.00207150488484 333.84795180896566 287.5764154039376 276.9783223876507 316.460717113237 247.6372928294303 333.4139101265465 363.7809702680339 374.0015769559414 278.77167763143046 296.40876992818505 361.4682539305546 287.29291019544945 331.14730951976867 308.16087751318236 228.94866835273183 257.77431622474944 379.12399649969274 324.47398307325136 342.71411517231195 282.1903467274124 269.95801922844845 246.7296786757163 269.85317534045635 210.37903281624568 346.1664793032241 220.79200454950154 294.00126930563295 315.7703107298226 178.448135877121 270.427197022378 233.05965727306477 268.4180574374108 275.5077886606783 370.73456132804944 320.3164747885522 264.3455023870673 374.2729995966042 380.83039112791374 332.13949785622816 260.7904915733543 260.6806699572093 234.36876400796547 302.69609706191613 323.96041391150874 332.50563737909505 422.00232975004457 316.8469094396361 263.7370979698605 274.1769016662434 291.1395546536106 345.01850086699665 287.50005070062326 304.36356673254977 214.4672971323855 272.9655142992592 332.48449399959134 339.3825495744391 287.37691661023314 328.11868414440966 304.71570433813486 289.08185508396264 280.0745424287596 323.2924034176913 283.6207900186868 257.3449193554572 291.93512063986856 347.7296144802093 321.9574616102358
conv31_param_0 203.49667412350902 231.27255660418626 243.6419591192279 235.4952289343373 118.07359098460675 303.19861434368306 206.8352230963587 236.39374667369475 155.37839611650713 240.68881866168067 210.68263975147295 160.1396038542819 148.56383833079093 275.4648860900478 140.46708424518766 367.02425002015383 273.5652481383509 177.71405813459938 178.33455032116777 149.98830633957905 190.27858014582475 162.8037236530701 268.12859865320746 235.65449772795995 171.88307533202567 258.43198133114447 220.45888170249575 132.77879892850007 276.5185594370028 161.69524526196494 274.5453569929289 203.9675900527067 205.22092239625115 168.3157669142932 248.3247635694791 187.41944357167412 190.27796841932863 230.6784441837692 203.72278257690232 288.56928492809357 258.4068763891207 278.5814357615271 174.48976879008453 333.08978921156273 209.67555563559293 242.01962730430228 171.67153703048697 245.00470322059417 129.78894494156012 285.09569409392606 379.3189853501458 198.92938947618438 158.02719525084729 183.92352768180143 178.6149301075945 145.5060656595249 187.00167473374262 452.3437024752087 227.131151721062 240.37603918296986 152.54586095222209 237.53003753179533 384.3273888760221 165.11355868278724 93.71705846762097 247.6066159005105 262.00529321152936 223.60355577589004 148.25419209780475 301.22659404187556 177.29477399290639 199.13702552408012 241.02667665294854 254.55843730479498 200.0144781244975 238.05145323566106 205.35152061055342 183.35516934464343 164.19799627725496 265.672793651902 166.33770034510266 145.59006861031702 147.75587006565397 99.43947016801566 228.9676618944349 168.36002814552072 377.2195007393618 203.10034568037744 118.91289331770379 114.92887624742791 178.1301475607396 148.37205781054283 187.03668855733412 240.0994281555874 210.64279540444787 224.22677743936256 290.0249695404601 213.3996841730264 272.9338878672562 114.27471371607783 176.77771806017842 198.7101952002125 334.515382291823 182.086791222874 213.57639209648448 276.9436894995805 185.45545439930746 85.15404382772326 135.5457001760047 171.49664859358603 229.50152982606105 155.33481904718303 282.33469990583353 129.302121532704 346.4393464287889 266.12585240545155 242.10938852536546 234.37786455316925 190.67626843364667 190.64532015781631 192.91237981831324 231.60794058367156 374.72467650482315 129.45315862748595 318.0715478940158 172.44985554221827 205.86977150621007 231.28074045216783
conv32_param_0 342.68228404523416 284.995746477741 325.4004851288594 220.05789962304084 348.42894814904935 271.6779645953946 300.51085873747456 358.71906886528393 235.191639932146 254.3017871727114 315.81809780311653 297.4744530082322 350.9670560258318 304.88950482542316 331.5419043614893 276.8802423471244 377.37099156332994 356.52729905408523 344.3626892467834 281.909971269932 305.78127971813154 350.4889767873103 253.76446507869926 346.6509904382892 331.2504791434246 301.94953375246945 352.6688064745077 328.8818724616094 314.91600730510703 336.5608929017094 414.8879890513674 375.91899708424154 321.14109147399125 330.2760272751651 247.65223115889665 360.5357802381404 273.10492224409614 376.6877586659845 289.66378832243953 328.09781710977137 354.3292085404938 377.03590403671575 199.33756100700762 329.0526043986388 298.1693965659895 330.40785669581356 306.30876439784856 351.043498568654 279.49315596692867 396.5184626549015 361.4532613097997 319.2819335476908 310.2274854432522 368.18130217628413 294.16539425940874 296.68029880699567 380.67063576288615 266.736007387014 256.41857513320167 333.9380516770984 284.52764034062824 282.4714489533859 320.3791839414836 294.3688409581361 371.71568014544096 225.59820157260754 305.727225187646 327.56904545665935 362.6596387354455 273.3300701102919 369.55502150686834 259.68564469353544 313.2014186113138 274.8467166287566 288.3974070976246 226.5496447592783 338.2311805600918 346.6687566194017 313.8348094144562 273.39367196990025 236.898669448914 221.27935491763765 364.6788897994281 269.16347750533066 336.8573208738502 320.8027756952168 305.9135130393321 352.0294139538342 336.0166482838712 271.38394209746156 212.80897328644699 296.4194087558721 314.17657726096564 326.9775092574547 341.39964652016397 339.7463401877951 256.89074544448914 327.25098133145303 289.25881057657455 281.0864905282832 353.27482168023477 201.847727867606 323.27511308791435 333.1079110349577 210.87206991189163 325.439028173294 264.89713115793523 280.79553601415586 406.6746260668926 290.14826998918363 229.84109028940236 324.982540954052 243.28723392715702 368.32641501084214 236.73976670531394 287.4065708225007 370.1641397731542 299.78643176080413 363.1721710768081 328.4905164008883 294.64033086680377 357.62813919207036 214.55573362140728 286.40867855867793 348.6014479996911 350.06792138372606 232.27641889645324 325.6437002225488
conv33_param_0 269.7943186352832 304.0667549166848 180.2919449758802 265.3013405478014 358.520365828655 256.9685869001532 342.71202047483814 338.30915825547197 297.703695527458 271.9918414182697 377.259040303846 264.7306773249423 288.46600868130196 378.31289011124124 358.5480575704576 330.30884675324916 257.13004324446763 248.57344356535395 175.74703457158995 273.52730242134544 336.3880447857169 337.21387385513884 271.47987838421096 289.14022763397105 260.1731436237625 243.2583750750369 215.13964112873504 265.52149350560336 274.39523406008936 327.2202239824656 192.00415817014562 346.4152112025727 228.02448920185785 344.9672498242141 269.48535396358676 329.20774487967776 255.26610479620166 278.7361937403656 229.71721612511448 391.84476028062966 217.80380298378145 356.14718209651664 335.41876245695113 251.03025914581164 302.18969249345173 413.6217822935392 283.4632018460241 318.63760917384025 293.8235505752964 373.8284769873449 342.72061992241964 270.7419385519181 271.7437629976077 268.5669057548167 327.81564037592756 326.0935885927123 270.863019961643 318.625220440224 317.899804496761 236.81920458241055 292.9534750945957 329.8401884450397 266.80628221901213 226.87450482156115 276.10229943525997 364.98342308434815 258.5714009025397 246.01997551007685 306.9482699295542 309.94679076138203 286.7690579987222 344.56428032055845 368.84019212106966 310.90792690979 349.31471879118817 343.92412611503227 211.5291667034817 267.29778610935114 254.55941050684314 345.17715438607917 367.25762302455485 342.4275725764025 274.35847085176994 316.03554532579324 339.6465009039891 256.13940904547934 445.91171887074404 261.867231981258 337.0776783965611 309.81431437559087 374.28848285123803 225.04932089853418 223.779710770822 262.9258712809789 352.52771752600313 286.61273345224043 286.02831439527415 269.92792362178915 346.07165628579355 364.1493091404157 207.9679011829938 278.7559221063559 317.1263695726301 346.15565341454624 389.53757055399564 271.51762141749816 210.1581869815351 341.24726033666417 245.30106963008774 221.6094779966905 341.6405047451842 253.1413793959673 294.18783436806865 245.27472389841395 298.5462998277413 287.45503858984887 299.0787333232036 319.74016774190545 248.35440288937394 253.10613664411522 266.48660379501194 327.5297193470608 309.60651045004187 287.1309452363419 292.9373444286323 339.9831886982379 346.75123810583943 299.52329479971525
conv34_param_0 160.26282452240213 202.48468321605944 165.81607864017997 199.0052320089334 238.63766183061088 257.7613436212547 245.11267959335828 244.402983480739 154.44436525855272 225.2615505268051 320.5640586443748 171.60923438044156 157.86336262246655 156.06370766902816 368.08793037325216 176.19235082572084 170.8745283361593 209.61385912637513 158.44450692541025 138.12563502140367 129.81817175963988 226.1167186208949 194.62393374822898 215.31961349907513 137.00632232081978 194.13889741065395 142.86360861108187 167.14451261365784 195.28815313800544 135.75158840410845 130.09251285565605 271.20021189878906 217.0104461487866 247.94704862212166 245.31629230533295 187.4755609841896 171.0017227727508 314.0280108543977 211.45949104582365 243.21355882675238 198.2137680707766 235.05819865452287 224.03573625751991 155.3130793015678 216.89151253049343 202.54069428272703 127.57099393891423 221.2047396452886 165.96287714437847 198.731712904194 213.24360508808695 159.6457632523491 195.13495079238362 162.35968883299878 225.65365514502443 193.95553045589654 191.26798631334336 155.4045291600508 136.19512681538887 271.3612516482437 351.05321528565474 223.7496078591773 243.73234249901597 290.3533576204478 323.21325092965054 248.12846603805005 153.72137289862934 140.5722025460731 134.07042366428016 176.4804414755864 212.26243276101914 232.23889873730084 205.1035792569838 225.7204219424123 209.66193843867026 135.91343972358885 183.08059534567516 187.3059263461908 602.9454539331906 306.1298458170271 222.6742263016271 211.2162699579046 196.18518086788225 209.45605997304517 233.7303492462995 197.3156952692531 163.76198991698945 184.01940735168571 229.6434358572264 194.19509370634623 242.77418627823522 158.61368115731435 225.31257380373575 188.0555005207322 304.1125408542501 284.1433287863248 189.0982764924936 164.73674919638214 225.8088357574477 163.94761079030096 131.54785754275 242.85609301153983 175.70044183493476 213.5057037725774 162.03605802830842 139.20029174024796 244.92790092468135 242.4170721539887 195.47279439199264 225.61418259392948 243.94765954869533 121.25005901156035 152.05104024091742 178.4207007917243 214.20195080316694 172.1662911103654 276.1741246222416 160.07403576476048 276.85171320239687 295.14525571398076 153.72492188962113 134.24464457976046 234.68266356033683 194.76052461875472 152.5911434812189 165.17704651432675 217.5950536311416 293.8652901964424
conv35_param_0 285.85152991215864 359.6786437082086 334.6347721496195 292.3814908954734 311.341308577875 344.5412134777027 251.72387650527932 346.2828792829868 281.35228165091377 292.5786399013472 300.65963483376953 277.76032955178744 332.96299163539857 325.930349902544 281.09175618823474 310.5257267609205 311.79768551609953 316.8211857822703 206.81988446775418 394.8955693692291 380.9919156359454 351.3096880274854 340.32391481050644 336.8038869773219 253.4320548535357 223.29819163280402 305.1546201347019 272.74395139598926 331.82293880519495 330.8295303009636 236.43931172587637 218.88638888680578 391.3768106771136 357.13543482830164 319.1513974645912 275.7101931912974 316.39401188979775 331.3810777574401 271.0393804135046 278.7188744641918 217.60325369345864 287.13653653497175 299.9578413180367 278.8767782480173 254.91399857905645 328.06033385007515 205.14544389683314 295.0047447480086 231.36931869884552 253.39486273703443 341.6622534423286 302.6380553102862 365.7415241541534 299.3203371168179 191.45576587241862 305.99006479525065 289.5443223182392 250.35560234621747 247.26852280162387 315.4516168456606 345.61275430003286 265.8757300813578 210.48862137926483 238.57481588242632 256.98896513918487 363.5109644962419 262.4448849237404 378.0808576360498 303.0538456232128 364.093772788366 345.55608656602266 402.68158097826176 330.68378906265156 253.37458346780724 369.41492754629525 325.01515959970186 327.02887436608324 313.3433283675813 322.10128344283163 271.4906882173244 259.1474324541195 226.95454191046426 283.6410082397684 245.05666430892205 327.629412535343 287.49048856909315 250.12093176134167 286.1661098798259 301.20579240159896 385.25425257429055 349.7058368463972 273.62476035271766 287.3320011662081 267.7452551133855 338.74252958682183 292.76195510314477 283.7050044082861 355.41216803019904 247.8206782568746 324.2916549219675 212.78772064662823 205.8601843818416 367.64623383744845 314.3614568965225 244.68820028105696 306.57650914769914 332.05378111134434 337.18759178095263 302.0625851883172 404.39636797851676 219.96736807830638 247.10503782178964 303.04031162127 264.16591905428714 253.17720354520685 279.44442204675664 359.29087220643845 315.2606717900995 204.8516862693445 259.5478034826954 289.1522345889191 319.6982137195688 307.54181445369994 360.50012571022893 211.30986151693781 354.1934413653038 297.6214842197674 332.699971019417
conv36_param_0 310.9837990292057 375.1014232844029 239.53265383324725 349.3851436907042 261.1126084092908 333.31893059495457 288.9629077009935 254.8915391744276 303.77550192772895 287.74444016947257 340.66878322917603 346.1585496249121 342.80909249824407 284.1207278093107 338.976038680729 298.2961919505771 312.76612923468605 323.66497441957665 285.29706039938924 302.6969356058857 311.8897880518628 157.5212826823146 353.31073093330826 230.4366236848378 238.34423708037636 276.38744039696314 276.52446280869464 366.53994816641557 241.13414892645437 299.29365982422115 302.00596327804533 287.62971622991705 317.63043846567984 324.1110845671521 334.4689890321911 284.03094670919944 268.74150814019947 413.9625093742107 301.0454373499378 294.37994392608846 187.91213919161424 249.4387652917899 199.8622657016676 264.37646539150415 211.156258330722 310.51133617257426 216.66110774533414 249.39818189309352 312.7608725248983 354.38749370359926 327.0468697716711 345.5104744150809 210.21016631977045 316.10439736429635 293.8867319513375 287.094848874803 317.3607013103694 235.37056883681868 250.92717257382645 287.8931910972944 288.63147776377997 274.94016801533013 331.5959005613707 283.5233638940267 322.30275250590506 281.32575792484755 209.16872611555007 295.5112073261372 347.683256565139 236.91787223997406 305.1343867529085 297.0782948897863 226.19982385619056 271.24051865633805 374.3626624489573 250.1838690307192 326.2346116928734 302.94612432170743 292.7300996649077 287.0973633325615 251.74302982756595 349.33628143168585 271.56139710378295 335.75693080610574 245.5603670198452 257.17949908870355 307.49474610870305 263.268608479418 224.5867558194799 361.0053141678782 224.72942603938233 337.2002920484069 272.3170242677995 242.60703017417964 343.5407586412163 289.52242762742475 355.7020979298825 319.3814556057819 325.3567593972115 363.79149809183764 294.7765797553142 332.9299027401359 248.33677474592673 208.32499970668178 267.38882455627703 322.3505134831353 266.3550177773655 345.0299541351368 385.827414505995 317.5447106357038 297.4208042202443 257.21467443495214 214.38117677172323 279.1763323334797 326.4389356348687 226.1957655966271 278.9071501304473 368.84325688980226 238.4710803064356 341.43673844689937 376.3190855475592 300.3964668733781 276.8476123963221 285.7258378545966 304.8590776105599 378.1650720076872 292.7969960468334 378.48092457990555
conv37_param_0 255.46739973891016 235.74512827696026 210.98935975958753 254.68804508181142 189.34879850476486 219.58138497137062 198.31645428711096 398.0316169567645 144.05411501875395 232.32390610901973 429.16483852034355 171.24493996318571 212.5644210313139 228.56188186732143 283.57938092520175 225.41333043884322 196.72481746204238 252.23368035730965 264.65026536366105 240.25542433589428 199.5966703700026 200.88666601926553 197.4274770555069 272.42830248796724 186.86584744243547 234.2030412338782 160.90868250268545 240.6813420053811 176.4518691237407 161.81270018157264 167.58181608684623 185.30100795547432 248.78183229070316 140.8216653349222 156.81704473294448 182.32406059366596 229.52031852459393 311.80881890784707 148.09253896513744 229.09447282625408 266.5293055635995 160.81626154153398 266.4786049855249 200.21949485676978 134.5694395348498 237.44318932256627 164.3220313402435 202.66587833901417 213.8132594125918 214.96146574887368 170.2862963781404 185.2329468319498 180.81105755522668 217.54328972815287 227.1235252125326 145.5543736542392 158.10777846812599 269.41304776083246 240.40297044068967 206.26111802346165 285.65575669287057 163.93616980187457 256.9430682951939 281.99593438449415 291.40541685298007 285.34995903304593 171.81302651195935 195.39225534821296 274.2628372789095 228.91469942291795 320.0144232094239 234.33419868932936 184.98095258435157 162.66877928546427 245.43927265321506 158.40289092766852 252.40904760562185 227.94525650209553 219.44327593309714 227.65801247579665 203.54795733788313 185.16107383191888 368.95988363434867 344.7397506691478 143.1278250480394 149.71796528650452 277.8549578547059 241.30256013010163 184.5090164686811 255.7845073351001 215.85244154035126 265.9561416467125 231.36477135329034 195.30727111550115 263.35303277781793 459.93183436632586 227.32013784475726 243.14001157099673 240.25458452218044 270.2830513490581 218.1800937248965 311.63791314532637 185.53384047098476 162.30187127619755 163.8159153520121 262.1433227104113 118.09051380275358 324.087199529697 256.560834728698 194.64180170146403 212.96611942858445 218.04699903067774 176.51653916953723 236.81359824100275 203.230099520164 198.34361030080424 333.1787508688313 265.82839529500006 155.74602809355434 184.21627670866414 232.5827293736135 252.09634175675137 177.84196409985296 234.9442332485168 229.77634881986955 236.04792599282297 263.1094738696974 245.97714602492456
conv38_param_0 246.19863977019835 273.10383708002416 361.8171449220432 312.59479184348214 388.1939674070727 328.75536636702503 347.0885960229667 205.9300794732876 356.4943117436053 334.62836049638304 360.7088765485342 359.16129626039833 394.9726881668805 345.9265846221185 300.04149648536253 295.8057519863608 350.4403816888998 308.5305510498 335.85902254868734 340.4765926045358 316.52199603602224 284.39872508815773 262.4082323052784 408.05951633592883 294.6845852019604 289.8155557455281 308.11936722563837 324.3825217616291 283.49192179521015 318.4054568257207 296.47847225898954 236.25123652594752 347.49913859387306 379.0080364865508 269.40642220133856 252.29144185538738 328.41067131858483 330.43521910516796 324.70339409039167 403.6502955805475 327.1934165326847 381.77553343504667 351.52512261973277 358.2338658011602 317.6138431337884 312.19665619298667 351.05469019150524 335.1920252635262 226.3593158311129 294.35670185826007 247.73060775841972 293.4838344710441 345.1565214574059 251.99252693681638 286.6374292976819 253.15151500750173 307.140720102773 257.6406923787037 338.33193538478173 291.9348806460994 375.9492760258998 340.47030876810265 311.3591658224032 238.66364355070212 279.3665453835529 282.1936729845172 247.1523892234135 342.42355530102833 300.173230156816 321.6776573748498 390.2281596192636 293.73229154058515 319.47342326352356 345.0898866796062 221.64823022635264 412.31480421830423 276.961706880717 272.97093471092256 298.8011224185499 317.26026139980786 272.21637425032765 331.18037960738917 336.9645859307312 311.24207328051034 310.1178096261983 303.6363477276222 280.20973675593143 374.01602013189085 266.1418081762509 333.4088494456334 283.64516173263314 313.9637150281365 240.63684512010235 329.2509092347593 280.7187167951023 321.66350147033006 267.3196008397326 277.60887741182324 290.1866005750872 312.8758488532423 408.92359915014316 249.8316460827133 303.79235020749053 434.0760224601628 287.09320483008236 345.6942011664203 332.1314470884652 229.3453072886315 422.8851972467591 298.30245624527845 220.3199631391452 389.56018281684055 313.2948131022033 333.40329330795095 304.3194872217123 291.1621322837116 255.34452526009093 327.46881021536075 260.3921833941488 310.05632306645026 335.5984649806886 335.64318938358144 339.5250777641065 306.7430110434781 366.7045638893043 276.8597712805015 300.3821740134748 324.7546658669885
conv39_param_0 216.15388381411287 224.5136078628312 267.7347582990205 228.76730601139656 318.0793350793035 258.0981964554153 255.36221361349624 209.7847221613698 294.2733615461272 258.00125155718126 177.83969302859992 233.48219357102414 263.04874788334484 177.72103978213454 264.2676513346952 296.1431089498133 263.8579240758453 169.33030547152114 257.08775628535557 261.39337842653 241.93869580141626 300.4078386089948 226.46998922976735 243.70909226500765 289.39130585955525 188.26025693687959 256.16195032105804 162.9605259202974 100.0877112747642 285.69758290813036 244.5878129815161 325.8354747618959 249.77017415283305 202.6178901728195 272.78166260350343 296.50623858681604 253.1411989473293 190.2827433889516 249.35775761029223 316.8284878611651 219.69703533114017 388.84065756886537 310.33796207456373 275.9212025709661 304.02699092880204 191.28354326400182 231.29201301926838 243.63156779590764 223.37300841973325 291.14568110045 210.1722626124431 300.55515601399077 186.51190715661895 349.28562919459716 190.71168189885142 367.9363656952136 210.2875090465202 318.32782288375273 342.2214924631433 249.0174006621433 277.87842115662124 242.5001456225652 287.08461742017784 212.53615727169316 310.2540694604738 251.63950573600997 286.9422071158409 256.8549619498496 272.70071855212956 371.38715778564193 273.3911462697881 293.97790446830027 228.6276333758211 292.03501229772485 221.92260322853866 334.1702487747036 252.9657442414464 238.08188307038105 273.51524136520754 211.7940755887961 310.2934682599298 295.5297336800657 248.88057599671072 252.23042571376484 255.99106514945132 272.82640580817457 193.64680372860082 267.2857316866799 299.6445231293527 287.7179408548115 262.915456962454 303.15379328095304 220.15437438095654 290.10716477572925 290.0119623618502 321.94084885484097 228.90117369106568 239.58617193795135 263.5973854365575 171.09443674551693 310.8145896718609 256.96321006344346 278.0492337618113 247.68484845666777 269.1839144556897 238.65364579949795 294.13859246266435 289.1214736669847 212.40543186847432 352.57738919606 257.5893773928678 298.45695432930415 365.17881050649873 233.03087991612796 267.9047767175647 213.32986031326666 349.9585907947388 334.8341025940411 323.37336147317086 287.9456171334896 253.91237207446628 303.64731699326074 322.11693881436923 187.22618413591735 314.56022997506204 184.47256278688744 214.24453183885143 294.9130567596922 249.46125242822112 192.53558689742675 266.4652580413781 325.2124981836875 390.37958826776105 256.32385899114547 311.6302786360004 328.5132061694369 272.7321513269108 318.1868752006209 310.53742575351225 279.7827389264763 220.95481935051072 190.28394991386477 313.8983125456926 269.76586477601126 231.4888196463415 237.00412561903752 257.0878338349107 154.46877401446798 307.21332488896945 284.16602810523835 272.7272291146926 264.34115699493634 281.2953583765582 216.16693186526533 333.2617916204315 292.56309279736337 236.4059690801409 304.40246207088484 187.4530967937585 257.1176938904051 286.02053926528504 271.9861647066753 306.58458180763347 244.4187117232987 376.37522307853055 233.80044253735315 305.2820471931351 266.31347026889745 352.24034598702303 260.4720342423055 229.56631437227102 317.18032823978626 301.40206379231034 288.3220103427276 242.26911017338443 283.771089171203 322.2775246250701 167.02786018178992 277.50144119411607 256.909546999794 233.87465949864458 305.37883077682466 284.6952965825377 352.97529627669917 339.92094943382045 280.70849096816863 252.70895208708714 232.4505575763685 340.7820870108869 302.8415571498186 178.30776193345383 261.8422435660085 271.9205959033749 242.5266163820333 294.09233024783697 300.25093388651374 318.79660398181096 244.91191002551872 308.7662396502505 255.88449480588588 311.39898234061656 311.5296292557122 302.13531500528313 225.75553039516157 273.6645081310493 343.1554539278917 251.2621064939154 247.78891848319262 220.51715468630917 315.48286404035537 252.94078921751583 280.98668426229415 240.83738772419133 363.4038615317272 255.54312428620815 310.69645651520426 328.232059226706 183.26678986483608 223.30296567493633 333.6141650390101 234.3063424942031 213.51098826219194 265.5122952494789 238.81660123991026 192.828491579311 289.36503288025375 208.10836174665943 208.0498185391582 263.12001728853954 312.9706812118937 200.8554957148066 270.30028105080487 285.72859660304897 237.48320413551895 303.82507759230157 230.433608186614 324.79624946599785 279.5326834276006 249.37789514549652 273.72740419666127 250.69390739284182 374.97289730407323 261.2039485846459 286.25678460588824 288.08571453681236 334.9678324477315 241.91383638058846 177.1344846305726 265.15872882241297 202.2027316598396 208.03013542762918 316.28286768700127 301.2050259681998 189.85520561407284 229.87605395052896 288.58822139134264
conv40_param_0 277.89181241531105 211.43777271267186 367.30130665920586 337.9565045089942 318.00534847949814 361.7596764733572 294.973318195467 358.5604267238199 335.1011948451787 323.8156409914075 355.59649007447024 259.26741716125605 294.9862841552335 326.817695651537 230.72428082288198 389.45469324206664 348.95147530512895 260.7035710726481 312.9209715016167 293.2906920852084 271.209238880878 331.5548535908168 256.99142934300875 329.69621016069993 286.8933713047038 383.287449788902 300.2283419377302 360.9011189476157 260.2399388626693 272.6764290002351 256.20990991976794 352.80989156265815 344.3379521270364 389.3789312405703 290.88207939307983 331.8452901963273 234.56340667779867 243.11615296406382 398.7138783242391 454.19868334579303 315.08880443628084 292.95391815917645 269.1669797906196 329.921343254428 404.5308057717849 308.5431724910706 226.48402360775512 271.62159874075655 337.9893938242686 286.0584206137584 330.1663264989095 387.67529112858165 281.8348151650932 438.38913352928114 302.57829557210584 314.90602388413174 270.96668596293284 292.8894864785936 334.5394635499182 266.6231241523758 247.37212831454374 276.44526378892607 365.6671757423028 257.9783385782636 318.83550676878093 257.4947124737666 323.971496919566 313.5854149004207 411.72311351548973 399.1128456461438 294.52047085258977 260.78225653016955 266.99537962926763 344.54940352480077 430.5164963979434 198.99476817277554 233.91753792187396 313.2770786026535 235.4025537238667 346.8927666311884 391.5188443255618 324.98392884815075 254.66128812303353 311.67606850796886 246.75910989103002 320.8729718384255 289.6602442548864 265.84434858505716 393.6464054632569 253.8522933669181 295.69458520553155 257.41212042941436 356.4988747238259 389.1447857322167 363.02335885637507 326.6657506704776 290.12191864682984 250.59342512675175 309.78210811998287 255.51062601773137 328.82210865587984 323.76591978524874 299.6932442775283 251.63507768458163 276.93742626386194 259.7279674991784 392.7155751242058 417.7819295498304 302.5988359914147 279.16543217317195 296.7688936105462 254.11882556596785 332.4147528863302 379.6307492317253 297.4164450683311 370.3176744947535 317.1660224476116 402.3181385228132 329.11695100872566 325.68098171418467 284.3535592932167 350.5870150247481 254.72400384230758 301.47547825501306 322.092153874236 371.23140921505535 325.5652826554997 291.5263840021771 319.60216153427774 388.80340661337874 268.97041485850343 283.66338189979604 252.7418357943373 309.538368651864 333.5247619121413 342.0876760986806 271.5450963649554 400.61765515755366 342.4535220435608 242.52029489340782 191.41096160652845 419.58262259319673 277.35920675011675 278.17788512725457 339.337579751735 215.90419139833082 431.04703267891875 338.20388075361126 393.08775560335613 299.9516762091471 355.18522385919994 290.463434394273 214.71744007842548 279.9450322946831 224.88732521467244 295.5169043425195 250.10255288824908 286.2567076896848 262.16346550829655 332.8100885809169 299.82610673028563 259.03552588508654 408.9806230491086 340.7919525550962 399.276636671819 372.9518942169001 256.7585772916059 422.14028301164393 330.6696761597924 289.17195405590365 292.81922785945216 257.6086551023818 355.19730286250785 353.8205734742146 298.60489584701924 298.59175628865034 304.5218408401902 298.56556431376686 240.6722075212351 315.58776722291674 313.39287274952255 309.41772108517046 317.8779168683204 360.54236901527827 272.61542756588244 306.8284175221293 281.2208636293444 354.7201269643502 317.7043217543154 309.31784450230816 217.3639950947112 280.8951324488993 333.78480101781577 284.3744514343703 339.37736014045885 371.2005597172564 309.35543383059405 287.297539343848 279.2022693584198 250.02806684777718 352.8766776993775 311.65621470118606 420.8909246495516 274.28922873170677 302.59413035622623 327.78928998226525 293.79909990773217 298.95980793781 280.64631992477484 312.4624024850269 278.2322455926563 431.1466402047935 197.32084826871784 344.7261693809436 280.8523682174727 324.9691830794775 374.68849960191557 339.32147567051504 257.3418422839983 324.3690403344004 273.4171246221791 243.8388651908282 231.31980998981118 230.86620256635933 326.23775858019405 281.2363236595695 343.49047170270615 320.9626095580801 300.31853965600124 349.0221540025506 251.13825527625065 292.09714644418347 318.0512270356012 290.05560714171463 293.2344454404535 318.6338924526002 333.95205239145986 348.23521782163976 243.4465112256187 431.0912485523778 350.80549139745443 378.21028140609593 288.61126508391266 337.53599499154933 301.8788179879675 397.88790302671765 251.0968211193626 318.1950006634332 295.5048752887065 273.6324384002998 338.6015453545445 262.2083746077177 261.57919747592246 299.6375281405928 284.11788636505617 368.0118622886393
conv41_param_0 317.93756358974554 230.56052668967828 276.2167292042598 297.4257447468891 245.80095800596695 231.85230268348073 271.9751765162328 292.45531285466035 266.7389458967369 293.68241265707144 297.62709659756 353.2536486008043 245.57890519647867 199.89119692408462 247.6039111701135 285.7827478249486 233.01161401967389 161.98560068142157 254.35120845407528 295.6523448627733 190.69195113603982 227.38881673436623 269.37651756141344 241.80308865148345 312.93367895410233 348.1924234916991 284.10199426810925 324.6614385062358 291.96120231416955 249.12853588231656 233.14098087860194 310.88100393236215 247.2433593943548 248.18340846448817 251.9052956228055 229.6950275440235 182.73356408446833 239.9869021858374 266.99877553355265 203.32875584972783 213.4862796378269 214.5559496727999 271.19427478501615 255.37644564211845 276.960608851352 247.66046384094915 268.1169921257623 279.79704919860455 245.6564845645136 244.77595916055208 287.056885915744 249.47676215336423 221.48971074406367 245.92246638702358 284.18393622039173 321.84995903815684 213.7927710427511 145.62216823762307 215.36462099701177 282.2936841764977 272.2721000463731 224.0084611379032 280.95633942171327 170.3430796963686 248.78128038314094 237.1695080653752 228.66387295569297 252.41254607519045 305.54716675659154 271.0191950892849 331.97956525251567 298.4591073596485 318.5667205159967 261.8916135569646 251.10066800094796 189.65002230986747 253.78220723749368 267.5541368865467 214.0205305206096 209.70564353218944 251.17804493370332 302.81041839783404 210.25478496685292 258.4844949501536 273.6364093674115 285.28846550764143 252.56253318970096 318.2133201151819 184.17812366045115 214.8694442393945 285.6379497968052 228.69408547382102 321.46365504294494 270.92630552084273 241.40519127794246 241.4128497371285 323.68805965795843 269.86756454219164 265.0019982983309 248.8137890090662 285.6495910431756 288.00752193842385 227.1847211885605 228.311167025825 266.5299390261598 228.1930661517996 247.41133673943335 225.93902283973966 252.0887361030396 262.9931300087129 206.8631556832051 285.90904625595067 275.8811002271315 292.1428230904153 262.7180816742885 210.4776636229965 220.54954441601024 261.92103842705745 263.13506221204443 192.13312773789107 222.97613502222742 315.32043685962987 240.26515034822387 308.0821444835396 323.93625558215194 224.92711367984904 227.16720903957935 261.33647094782356
conv42_param_0 286.34597752109556 201.35336724146435 240.48190048185398 315.6005987017267 289.6896232571106 296.27166752042484 247.20460571639927 371.6906179933163 297.49582240724453 237.91735146652542 304.48472072074645 294.7474443113756 252.838378061 320.7673511097957 355.452841833305 241.5669974243664 340.12869235542837 302.9231034432999 373.9142851426949 234.07635060394196 363.2876232029725 196.694253382458 206.64615877596634 365.8418749549825 336.0480215857406 328.5241216724351 188.64094309739755 327.1496095005913 285.5311741558014 275.6340627668107 304.37204502555625 267.10956617799104 298.86581306348387 265.9104872648018 227.56432910271656 341.701813586483 324.8232597570548 345.083012239907 311.8516944544661 311.2379815239981 226.17089092719596 276.68660794501244 362.12457765077596 330.07753429247674 260.96861380240176 386.3249384170135 310.08111783126947 272.94119503739654 313.2105575761718 288.53581509225853 335.02418835261824 267.8361778244834 258.56423102857275 353.2296965030498 314.1461209256188 350.6856275862205 344.0001414292083 231.88000738287522 267.00785958388906 245.9108579004929 286.855500225908 204.72103439585476 317.7905386792142 207.5802291705311 247.9755588801971 316.9861770670484 312.7021425322795 246.00250677725796 304.0203754534002 320.9587417045363 246.65487499322793 302.21742440527055 303.36697340709685 266.9431471195328 295.6710530350978 319.5741432046904 370.09572869617597 280.10436567503376 206.29838303104827 263.76145350975474 391.2491043962829 187.11835632823377 319.86638401654704 268.01714665557887 326.73432762581234 278.36563039460793 324.7764959287216 276.3757352253995 377.2355960820518 327.017305144272 187.19195450406713 262.91250476679403 320.7314032758097 324.7987992831186 280.9023721854889 310.41629223885855 256.88430336995816 287.9929434034819 282.3615077770105 234.22507943149006 252.4162838635082 344.0939436451174 382.22771730087806 335.8902869956055 293.55673796582204 241.87107914224399 308.1913656197782 262.08265498878984 316.8137898261254 288.12907364625585 288.81943085921995 285.66870159361685 314.062749421148 294.7470161917395 373.9273435058158 234.49703602672292 285.6994983211333 245.39438410537448 287.7059944464147 270.1113202124729 217.53616023648652 290.4191324117514 418.5853602044141 252.66840629886786 223.21872446079908 241.6336768761794 304.2960615936671 269.5320396753709
conv43_param_0 422.82708315680037 517.5262847763157 279.62294546916263 315.4945891738167 387.56320610771724 336.657463322823 319.7258220175288 506.031758758453 229.60804805730325 298.3690201834333 410.67034875361435 528.1190397096259 233.10254336676644 298.52613857668456 168.67857490902887 219.3403782418543 233.3603195341175 250.8203912701536 282.10913937773984 125.77767000034238 273.3175356009543 308.6091558746002 198.19186462384027 512.568359060906 365.99640222860853 258.1108434149438 567.3028599225182 288.90525307132935 346.22526023079394 315.6130805947793 235.677200968102 315.98199885335083 360.6287774870291 484.90807142944925 303.8107165281471 166.46313064117058 294.15877457361466 321.9130269379821 209.84069134257848 405.01539964379964 299.0137406692684 231.98634586950794 269.3190089641488 251.26059537744163 241.80937280578263 252.45357810130886 395.6590045066032 471.616167972496 191.11108169155625 373.37156325104064 207.9303553005442 195.69672692311156 184.42568300136463 272.4692190443478 296.4745532110524 243.97251971085217 224.24145554966196 263.17385225538396 357.87134994621533 256.0094891558555 382.85019438927696 285.1695081145316 218.53302923894796 289.8115349321682 256.53172158006544 198.52545720022275 191.86226515470497 295.91957100610824 318.46970470233515 178.50027980904625 157.4482765092861 480.0715118962497 310.4265583418636 263.7722451701581 246.02023116848807 339.1892422557171 329.8397544329001 157.65145777769754 396.46323780744785 213.51115942412386 178.09481599961484 244.798344654854 256.5079726161983 398.8898125212308 272.9347968718977 130.36882954144966 254.7730410353509 232.60415895897754 279.84814826246304 348.15598262509667 357.46284386527446 268.1878447092974 201.80542064752947 348.05236271661016 142.81467674930192 552.843653422278 231.6537444197296 224.99245331951303 382.99068356000333 266.5390078729283 122.85341205337842 336.09734568762474 206.2429097982558 213.3206122934855 346.63706076997704 267.5892334936013 265.98165584721585 298.5915679912823 577.322939366101 346.80917349570126 270.0179055027625 250.435758549957 280.4050512237432 328.0498279502629 395.1251476823765 258.8390413423874 349.8448479644098 182.45069166559844 352.20660432913456 244.90822227994877 286.9441585755266 122.59656238136385 424.83445313870004 119.57838138042209 136.74671090400105 153.15807019545187 313.279427732681 260.0289612834191
conv44_param_0 281.08241163152894 342.4618057874376 316.39734765766883 438.4972622558452 399.4665481288057 395.92125080040626 268.2422033335732 278.3890163471884 244.30277400393345 307.4619998346316 322.8403978226559 333.2743021293625 315.00281294430425 256.2550058543274 343.64558887615476 278.8381658636478 448.7989460723576 422.0063834536445 264.69695129215626 287.2941885227754 428.5253443004813 474.2846923836657 344.0392171553095 247.12527173317372 293.07661804606226 361.3855494046154 245.83669164139312 267.1428213027797 354.92350677758265 340.68792979102847 243.51119894417465 400.064783749837 472.7079340682355 237.85536222849942 270.8470095279208 286.4074080994163 459.1816071027575 400.285034697715 288.4111677469927 374.2877924877591 410.55236670479877 386.96864404740336 265.2859312909396 354.5208732331725 431.4594556503462 292.43273490964077 250.22550197324884 258.18235565757175 200.56401287965923 392.0632289521269 405.8152581467305 382.94969260053995 246.06102969537812 322.8768199934203 400.7679086446789 246.02631031390632 417.4202912235822 499.3794822612656 234.16597698526968 320.95042613507985 356.29037937779384 331.1809201072546 450.15912116663685 364.2947172467219 353.9236004387862 411.4218072594963 439.2394507451659 385.5227623662019 362.32963837121696 306.95547776005725 292.31785214046005 341.2662806724497 281.2528434573997 310.3165609682745 308.825536998911 463.39248117684417 228.61416607421938 430.1141215061155 319.6754782327417 464.28175391507074 193.34002316044425 325.456600469663 215.9990722215509 265.30084504544976 296.75300132993186 229.67838892096972 284.5954203877202 303.933294923957 295.6578832197209 290.0522114185235 301.12927475931775 331.3372500584119 315.0312464307372 488.2363582035926 271.23623711299194 325.54123255188597 301.71614355624087 402.3672941169139 433.6999831869759 355.424855360436 235.28272015023066 417.6843478717707 247.66423493753376 470.4623701344403 436.76731095475606 382.8946387903966 275.5247467855435 363.9466289517499 322.0383607938712 346.13237301803383 390.13384423311976 302.1873138724931 225.68264711483607 394.6694742504276 471.45708098429725 461.0314055194642 277.32038177609587 301.5684330547557 302.9377898859007 399.5610096615762 526.6626146864817 301.3972460859286 280.905797766366 192.52941081858953 408.5141069424852 373.86429119881865 306.22969845656786 274.66726257006286
conv45_param_0 380.13299208827294 289.31923851710457 374.8287652369931 175.15764773697774 264.5463825436914 402.21678828589376 265.5842770394504 305.59383794338993 376.4237960530122 310.34130697035073 243.40907761067072 324.2158357662382 315.8278816613235 256.6670881196515 355.9734692222211 316.5129919300349 273.24950116438794 224.9179249977463 333.24414818661114 267.3209591382322 328.91748729842345 261.88981093522784 256.3637666578192 228.3181150648246 320.52523919915416 287.80717207310363 353.3723736179719 309.1167598823454 341.40054910412067 272.8870823122138 325.7789298407752 251.94783121781117 201.31965519046366 352.8579481522129 397.98280873366684 179.02634831043397 344.8727476492292 356.3077173657389 258.38735369498437 297.6375528140228 309.9059924601454 336.8392946900189 356.72812834740296 232.68651170369105 174.7712389436424 290.93577851370594 343.38999731986746 242.80591858009507 286.38188580565173 318.2551467424092 348.1223079195993 215.62511076217737 334.0159995485225 257.3360613184318 262.3268671295714 274.3864354325865 231.0510096672006 252.70130942456692 292.8671836143319 255.71721724052347 315.04948289131363 295.1512248247099 338.04811193710646 273.6886224899 372.16484230988135 253.93512833356633 257.44028287293884 309.344968978123 273.0761683096108 298.0470030748812 374.21837465158075 243.11548720963322 327.5094305661583 383.6149940851957 374.00092047444804 341.8268827815034 312.71852687665773 435.28163486606195 420.1117170040429 293.61238005070646 266.49038673257843 353.54836692823613 289.44850587789796 305.77901975065026 367.54140382728696 262.2101332151933 342.7758926974895 448.46695820684477 308.1473291797372 226.6627226954262 383.1329981941179 269.4462145210041 333.3771323879671 254.7442865035433 304.6419230743935 328.71507029161864 368.8901925228069 335.5957427807442 402.5602718213573 298.1538337321976 227.17588000134342 322.0944909945104 308.70240298748035 307.27716750924753 413.3173309057213 338.8009709710442 373.8410374175903 288.1738878755805 304.83125129653394 252.23415811022056 381.39765826088956 359.70065473357255 416.56626095225585 368.5175273166014 339.9874201683401 426.8640953726946 231.54773572492468 335.6688346362182 407.69044015012577 308.70698743196755 455.6064976171448 348.9701067805668 291.84822869534565 322.85544023487597 331.2228528310592 379.9042088701936 377.3258489385385 378.854723512188
conv46_param_0 228.9150683289057 211.721322042491 502.7459425278203 97.5149810696016 309.2218916886364 315.06646356299956 293.65482865167746 211.56941013649447 536.4617817454116 389.44127527695997 433.1319054138072 280.17631738159605 163.17253189750312 444.55965984309535 387.9553107129019 410.80796140225317 543.727495534077 251.91306891309657 186.89508890274396 336.86056951983085 288.6063589512976 379.7194450805656 431.5304981795653 572.8677181532674 352.50899584293103 501.9459698856885 319.48872841110955 205.44753303161522 702.466664336877 566.8754228040627 193.81645172605005 514.566193535424 101.8213300300001 195.5667717573687 330.2053672196651 134.08804058109718 281.9365306641605 272.81391744980766 150.0298644926074 276.6343043029183 491.7422610890349 186.01919273658663 178.90308749843408 292.67465073890617 375.28905633325894 157.9219932783112 589.1175282741414 419.1469395057732 277.3720425003972 356.16551826046924 216.81038382963905 523.4215660113313 176.40326623649028 173.33499875004262 335.26990026667147 248.08001781858135 105.96225652426547 430.9521779432517 182.2164742625459 548.5650401098517 406.09010038535274 256.77855089094606 190.64455254989787 214.20117558461806 484.00313520960555 308.4045273248452 155.50004729137206 427.26045242909277 213.9390216890358 384.0113961305206 396.54477088055864 292.02634684530744 258.1693575937724 184.86682436160316 215.34629362323417 249.21983001123107 539.0669433887176 259.62202816866744 309.4848882371042 357.04231576273304 478.73873092940124 235.8883601673477 286.04520996208134 391.7407308193878 366.14055256005054 326.3918054718677 302.5076715640098 264.55190075565366 301.501820651178 477.5294747550223 291.29070251334707 442.88867890407886 329.1616679132299 228.39212323425937 220.31777612795287 197.4545365244381 398.1297528732915 300.5524850905569 281.2616424339335 264.39567331504725 265.33114015835145 615.4369094224862 353.7640311212453 518.3607161272657 285.2630276628792 450.0265347364437 454.20221732808096 188.92666551693105 337.1474694909519 187.73147475593308 330.77758065347433 291.8098575611456 316.337572905183 439.8148667173215 263.68205339474304 376.70700550570115 378.6981018141534 351.21257675797995 286.67543566778176 424.9720183886056 271.7099242939398 269.9253589656292 183.26366880767506 268.03172846041286 219.17177164153986 269.932334944388 320.14003841909266 228.47597878344175
conv47_param_0 178.70448421346444 314.0463859276043 228.83297917150404 289.5760194215265 408.40225286630164 321.6287361660588 312.7973288037289 274.29321878458103 238.32752144935625 291.45847214912527 347.2952036178444 394.6950258888739 340.26907669773107 367.3950716238901 380.0940005107269 276.01063078802696 420.197425734022 308.0837258773065 321.8082758260292 348.40641492974294 323.4858377638477 317.75959092099447 405.62721720522796 333.49492801871713 243.3374407561288 273.5357826653271 325.0400989380815 374.44980183147175 381.70033613425807 354.10023165101745 377.14722220501335 411.27770996197427 509.94620223816094 214.68697852391082 287.1570075761405 178.87633828387868 371.6439718359361 329.35699867597555 353.98651575780997 336.45712553230044 519.6020563078955 411.0284683665579 350.2972687598237 334.7308712692926 383.8684628877227 309.42830320106367 286.86036632174955 221.84829275098548 281.45080497302666 292.3816915026373 373.9210110700958 407.079775893774 213.39335797526599 230.76536192806495 311.811146069698 313.62370244417326 341.65515878971667 381.5072978918952 312.9070473409443 182.50082436470728 380.9085826630537 255.84654872969276 419.59452092777235 345.523641305802 195.834468306474 463.9031917714748 437.1430849915242 365.2176501733866 387.6105143696245 294.9078932225438 351.79715464044506 318.96444755485527 311.59778487942935 326.0239583354054 358.6275668925832 384.7682006574465 189.94221537904176 401.3874040804362 429.6254196658643 491.1729255659842 356.5063606502628 364.9817662977776 293.0022202342264 233.58498781101588 255.3335095309383 277.8156860753506 398.55278507722016 296.7783388541803 320.12060669335057 288.6625646819905 410.0735389526345 360.79270729177694 332.7670514291979 466.53352579671684 240.61401865190606 248.40110496013784 292.9519445181737 327.36320420729663 371.2063476494531 343.5872650079914 320.2950234914127 423.22976189896843 308.55791742932803 445.8355362094071 310.9930586885786 366.3281115358879 237.73946479939042 315.89739259046644 423.899072257295 396.78111098934363 476.24758004509215 248.8583678154583 355.4967278032322 350.7763551076765 435.74983163750596 358.7704101095259 340.05877427432097 349.62441078898263 327.87226392445 396.1916537637164 534.5236209645166 296.24618989299813 338.89139284944025 270.0369494648926 429.0840737026751 328.5865895222262 318.2179062483922 245.64059662343482
