conv0_param_0 0.0 601.414232858 0.0 552.679315974 218.780373385 0.0 1252.03858585 0.0 0.0 69512.0631319 0.0 0.0 218.666942527 0.0 0.0 0.0 228.822411921 0.0 281.698104417 493.437816069 937.281955199 0.0 221.929676409 0.0 123861.276447 701431.281763 242.703060815 125.444026593 0.0 639.862685948 0.0 669.087488884 215.852354072 0.0 425.276062251 0.0 643.649749804 0.0 1533.50413904 0.0 510.542913438 281.569246869 0.0 232.264923579 855.571818657 0.0 0.0 5431.47083468 0.0 0.0 285.418169711 263.355181105 0.0 559.068667408 838.795000825 1157.62048885 4027.85754429 0.0 0.0 0.0 0.0 562.639555551 360.103887131 0.0
stage1_unit1_conv1_param_0 660.066107712 1045.65593376 669.513911649 648.486041971 556.880987663 686.085275631 971.449395889 776.462203337 668.329020015 948.066488596 808.314392264 903.663716985 766.794977791 1425.53719506 751.572265067 523.469017009 658.695211791 1048.81801011 642.684466241 1324.24810761 420.660625311 866.877407521 1243.77562839 718.125098889 411.138314813 623.00943232 766.004429848 930.772068229 821.795282685 714.076195658 1176.75588678 786.458729727 455.623011213 904.57823037 1486.89553451 1295.6334342 701.535097515 668.121130023 978.478512067 1406.56761981 1072.08281383 1425.64783838 500.259422244 614.215965574 560.526397071 752.479753396 630.446532003 873.844152968 923.356558885 773.411814776 1118.26797938 899.867664907 712.867562591 776.757720549 545.97138662 941.335239826 1574.43000386 1238.08233903 1288.76974833 791.460936755 759.830907019 754.190717964 1042.94699896 1031.56788489
stage1_unit1_conv2_param_0 832.069767592 826.059880147 407.185537361 1784.92384504 1140.76017272 1639.97174257 1164.37254918 1169.53454963 1792.10499431 1370.14661142 676.500054491 2088.58860684 994.99000997 6028.95039649 654.7227871 1715.76790901 2385.37086145 1018.58683848 643.153495799 1490.55316218 922.714076425 1789.75197012 1067.79319018 1769.14917462 676.225343553 1421.74448229 1247.46529468 1150.94504243 2150.20136708 14074.3662544 1791.11053183 828.731111949 1829.47865511 495.657786633 3725.74686807 1110.55669086 4919.63726991 827.446517348 3014.9076055 1574.23341651 2160.14091716 1066.05147972 892.232272815 450.201732744 10368.3656533 706.002463065 1348.02985244 1116.32532819 6488.71311829 836.44646643 428.689847544 1095.37040425 755.652523951 1607.84824983 1738.82291298 1022.41866135 7256.43380705 956.022591894 871.023425726 958.507110451 699.739788685 1195.70509996 941.347716304 3440.99806246
stage1_unit1_conv1sc_param_0 760.060211055 620.185115398 273.851998396 2059.49352242 199.209040681 528.885162491 5030.1625455 1404.16948308 577.668656229 2328.65331605 1123.52491207 812.455438487 2300.85385561 1640.98217342 2111.85679024 2324.67356168 2872.56066331 1533.14607594 4165.60270015 1944.06301694 1658.9952018 1766.29503761 3026.63639305 2440.41718386 1720.77223893 2937.68122077 526.300250212 1483.95065376 1784.08950815 328.984422425 577.288644602 3266.03109825 590.110801436 244.290337622 333.930672334 2599.01201004 1945.25771894 3591.54258412 4649.03739857 2060.72324039 3560.5999953 2305.11597265 2542.98539641 293.819093647 420.698333432 1935.78959947 630.713070969 2588.5359281 2808.79432205 2281.49469414 288.503466344 1948.46414494 1719.09718988 519.023974307 1243.36663945 2128.4925337 3681.62662195 2433.25126774 249.776264352 3614.07317747 2076.90916261 1309.30546523 1994.38148293 670.631396121
stage1_unit2_conv1_param_0 924.172671038 1117.79681952 1221.80233191 516.281883193 1578.87588852 705.207523989 806.678076431 1012.57032957 457.057770967 532.018600744 1058.23401282 327.888207802 530.290367632 822.577013622 1144.28560814 891.878779862 746.01282244 892.940567791 891.569306835 368.054136114 1046.60074711 1098.08967117 632.649456785 864.374041961 1065.88989156 872.564997132 1126.34493502 1040.01678216 884.489488546 977.010352303 1038.73308389 1150.34533039 877.012031867 922.424367394 591.14121288 1361.06750373 357.978012821 383.317168949 878.719100556 954.031352151 887.811270569 892.51687659 388.742826971 1150.91714402 743.655024268 912.492671751 925.9610128 891.312244682 665.165576232 1114.19929528 971.979185101 330.48608731 856.891190691 862.689454496 1263.8876035 1233.51973202 1061.4071695 808.602281836 978.206958989 1290.69022415 707.702198339 1058.88916094 486.852582388 784.006936713
stage1_unit2_conv2_param_0 3791.19266007 3922.48739847 2799.65952974 557.278685645 561.606429395 6764.04070848 1272.08176834 1279.45237898 7419.71370489 913.591799952 2565.41350583 1353.68208548 1189.17527383 3452.07269469 1393.08237473 1772.72869105 1313.8421532 625.507100308 1040.93712492 1162.97001133 770.272575964 783.972753285 1035.11246989 1059.18156363 990.25534517 1039.46526852 1546.62826203 1047.91454262 1040.46465125 4513.41576615 7444.7171524 1160.90648559 7608.09835652 3229.2234703 1043.58168869 865.481863605 714.073443574 1170.20103457 892.066695674 1375.50534119 978.488397735 1262.84299702 1183.69332619 2658.60772358 1520.1928164 1258.69497969 953.272446429 1002.01874259 1270.47715166 954.234408338 2437.35876421 2092.2120834 1117.93706265 6660.92487422 3407.00840636 1010.96170698 857.111366818 1313.66222438 794.09139645 1106.54396947 1138.33781623 1316.59195883 1487.89387362 2632.44055224
stage1_unit3_conv1_param_0 995.627202825 868.122332886 859.470583128 852.719676906 1248.2276106 1012.91414429 757.781801858 1464.68176341 839.581881841 1005.06371524 1368.06966816 936.948829433 663.801562345 964.175419484 1101.02021537 819.691554619 1555.35042508 1016.76087909 1167.87089384 1086.82161084 1399.69251922 1121.64507729 1124.96251903 1040.12853874 921.396526233 982.44493366 981.344033345 1114.99363873 875.682202338 979.631650508 1067.06639109 1339.595026 1038.89300085 784.067089475 876.310390284 1153.47503172 975.693898543 1052.08114658 1130.77550496 816.898609528 1150.95374639 965.185427769 1127.0522845 426.797701265 1386.6569776 943.662613843 1030.73420397 1213.15568886 1076.17346761 1011.90190133 962.999273357 870.138066976 1011.09603343 1191.67426289 1223.05148732 815.649158992 1128.39001918 922.623778741 1159.62445087 1248.15631812 842.689146747 1280.32709744 1066.81575372 1395.95427505
stage1_unit3_conv2_param_0 930.258008399 1117.78963603 1396.45575592 2090.2361933 1583.41916998 8516.44690926 1289.24192038 3817.84597411 10433.061998 1103.97044724 1017.77320903 1313.0291697 1289.44263001 2720.29588028 3250.54745766 3174.61719221 906.209659714 1129.06987513 1060.66250237 1537.28889745 1077.9031753 1797.02040797 1008.38035612 1087.03875596 3694.93699306 810.839279863 2063.78897732 1828.10304809 1086.04640481 4893.8496411 9681.99811082 1033.44301472 10187.7673354 1267.79900624 1538.0755432 1161.41517142 1884.78717602 1303.87108746 799.550235869 1135.14218309 1037.07067818 1206.59137239 4233.84366177 1208.82889034 1433.38347021 1552.65720188 1519.12833938 887.36988807 1117.13346944 1575.32981368 925.26206285 3613.32622128 1578.15347417 8756.01313352 5493.88623642 644.711219596 319.72594196 2220.0631409 2238.13186564 1084.84848571 1185.71730658 4232.33723623 1458.89072021 2784.68796366
stage2_unit1_conv1_param_0 965.307208307 1264.40389592 672.740190682 879.622561444 797.182065871 1006.77430477 897.206226905 1463.4560743 1088.39028893 867.72866365 1068.60330617 794.958437831 1209.26608307 1192.41819295 782.509200891 772.517933152 862.105488952 1133.15301894 661.926482952 1114.05707584 838.764457665 872.604841474 778.971749792 1012.41949544 1003.5243261 1217.9833536 938.384926255 870.328930201 932.517803379 867.534435449 1285.98209034 920.286499478 823.317123743 717.011595416 741.597512539 880.146060762 925.373574751 1226.72488818 733.561131947 940.05628629 1037.66513242 980.307271365 757.762330716 714.004768004 729.90483107 1119.37039322 786.232080567 1333.01787278 758.569300679 1003.79191273 985.636306759 885.164026439 790.654017552 803.896295918 1109.83072268 803.550603604 1214.63989929 955.822418627 1124.94715069 984.49162703 638.562240413 1263.36349251 852.283254627 910.898528767 776.415942988 890.123038345 1019.06493028 897.156076875 768.316213435 844.306075582 658.026452231 1022.30381084 666.468126681 795.675808739 633.333674764 665.188418726 935.630400102 993.481996311 1032.1164224 1049.41528692 681.547278141 940.421406119 906.081140518 976.713085037 1047.22689655 729.503925304 946.878689172 908.706717253 983.91505856 631.083837977 982.479249183 772.099569271 789.761132728 875.495639279 816.642106345 962.835433566 1098.74943024 1023.17315834 879.381051659 1050.31856223 637.515087567 986.568677778 988.353555548 693.495986787 794.702261502 817.566021557 746.790237115 645.960717236 872.000063844 943.69636339 643.786661522 1028.02876827 859.248846901 979.677593845 1253.44750748 860.205495516 820.247084685 1131.10971365 813.948760577 890.228379427 1172.5427505 838.271699613 971.138018364 1221.87598831 694.826144226 788.829374559 1153.64670103 1069.04067135
stage2_unit1_conv2_param_0 1923.16864884 2450.24097993 2510.50856305 1205.26556519 1960.41859186 983.88314143 817.729494771 1005.72218749 1073.62117265 754.932715722 960.935989508 962.583255385 760.365351112 1668.24054238 1587.79327116 937.315146797 902.502409634 4142.89927483 2602.72212739 1451.81936429 997.617950046 668.970006721 1203.5498496 3768.68966618 967.798740076 5337.71465017 1102.3362528 753.193025589 849.942850122 1022.51071982 1614.3754766 754.247917501 1596.31518196 1020.69708078 1334.02585681 554.833574712 1221.55602847 1120.608458 693.008329768 1090.11497322 672.033031615 2667.46175574 1028.65870964 1351.82977033 2389.98634079 751.70616693 869.874568116 2526.88411607 865.815969049 853.754445464 901.428833367 872.475405323 1348.98978463 1173.44276988 2044.28921611 1318.52073398 1616.35760182 1035.3898114 1067.42482072 2560.57764785 962.408471988 1108.49529878 1589.23514569 1245.49399438 4798.94274027 1730.30094981 790.646169374 1509.89779733 1607.68492655 1384.1427442 2271.82177763 3201.96838034 1210.30115118 1006.00341574 1006.20508515 1029.94910185 2544.48786858 953.591462234 830.967589359 1169.38667865 852.366360413 2711.28724931 1107.33174729 2532.8682944 794.845450832 882.096828123 1512.62189749 1009.33953974 1062.19067604 1184.46435844 3497.38577194 1100.06252634 1517.302548 1195.41068597 2085.81627628 1131.8971675 1558.25241207 2485.46890396 3005.72767279 1538.16339896 775.167019757 3142.58734584 1042.55361108 988.788481139 1745.016906 1166.70973912 994.418254359 1539.38428571 2620.51973105 1791.33471205 1251.86360122 756.716202537 2971.13040629 1337.54075291 1252.71581319 1194.16829977 637.567404177 857.612549031 1223.55348099 1211.17127304 3043.34869042 1416.59891763 1393.66907246 684.39593761 3234.64880609 1333.23171511 2221.55541331 1048.09515024
stage2_unit1_conv1sc_param_0 1782.51487771 1546.62587638 1582.64424687 1433.29620858 876.174808416 3015.56978619 1609.85557149 1927.52265485 1511.8813148 2663.63754224 1580.32724513 2513.29125006 2763.16234332 1522.25650931 1468.3815527 3057.45453293 2990.30988145 254.864571772 1600.64893584 925.346246826 1851.7476001 2926.52998591 2739.06468107 1857.14219086 1973.32626259 564.277263299 959.961664724 2724.80830855 1843.72608761 2941.71806095 884.736384378 2863.21173158 462.467859265 2310.84910746 676.019644392 2446.61382011 398.240106641 3075.3524488 488.658102849 227.205264467 2445.345701 1448.52452922 558.412295045 906.805717451 1654.09153487 3089.55729777 3369.95223747 1698.18743288 338.995993219 1442.67931967 2709.48277259 1183.39641689 1434.71794296 279.057317967 736.446466255 1043.18648126 842.452916417 3066.51418143 515.16726402 1420.71590977 1808.47237254 551.058792768 1639.20858784 2896.9828352 1173.99605864 1862.7195339 2990.45546186 712.274422223 186.996603495 1537.66568231 558.02189261 2007.56869297 1374.35360327 466.01456436 2410.31042551 398.197907519 817.829619088 1338.73409806 466.395152412 404.21320508 2604.65697864 1396.55563765 2589.0962062 1686.08281164 634.387192962 3122.59818378 1288.79030849 2270.14286317 1763.52252526 2927.67777917 1172.50306844 1937.62831037 1304.79770254 3270.41969153 1598.27356072 2282.64483625 1492.89240953 1561.69475069 1002.87722428 2030.98240339 2818.06555765 1583.84127887 2105.77198591 2405.794611 949.310138044 1704.98064938 2228.86480206 393.433179665 731.870735057 1713.06124415 1690.96874233 2774.90743705 1851.18833234 2538.89619894 1459.04069545 2084.66032446 2725.93603115 2725.28926309 614.57308024 1850.50363432 1794.89030802 1904.96455985 3134.83562255 376.652533386 1330.62275964 617.077543247 1369.24487934 1714.54723963
stage2_unit2_conv1_param_0 1317.88421185 1486.97400848 1313.42526337 389.561500463 1367.45835476 1244.81945995 1612.8229384 1580.37369157 1031.94858871 1342.35643702 1206.70292768 1694.96553877 1207.72385566 1300.58954673 260.034483053 1264.73665776 1055.84545962 1281.5737753 1464.86755001 1349.5923869 1361.55988909 1403.14503668 1395.40311905 562.603083495 1567.62279167 1311.47553447 1449.59735186 1175.35036314 1459.65377907 605.242454731 920.070317566 1789.0704574 1482.59605355 1178.72529904 1426.48441861 1425.62780685 1308.55795331 1614.4811345 1198.55146096 309.619287565 1630.79967322 249.497357142 1041.26708143 300.479985537 1363.1557097 1234.43510375 1597.75341266 1306.45950023 1743.70165745 1250.00533173 1375.70594189 675.698821328 1489.94354567 1652.29127604 977.746404818 1588.32426928 1095.77487132 1172.23713895 1402.83648177 464.541443471 829.828734958 1472.88224184 316.865238916 769.661420436 1730.73753163 843.694354854 994.965965584 1384.68166463 1482.19885522 1314.05910535 1187.428511 1494.84182696 1227.58723159 1477.99719187 1287.35131876 1279.98742784 1561.61105342 1617.9249414 1088.84915158 1390.89053788 1760.4346518 1007.58723238 496.679975142 1334.53230138 351.82457271 1765.0167943 684.938473458 1447.26526191 1080.43514525 1492.79997464 1122.57396841 1289.28609455 1180.40982761 1519.15176161 1322.13588617 1543.91507007 1432.06218533 1070.67776343 1487.63676275 1169.80286682 1258.68326869 1526.87642815 1664.2524576 661.423472329 936.261585609 845.016026483 517.563118 1567.27153245 1440.59498618 1477.4240513 1619.29609016 1130.79575896 1280.87750815 1357.69758074 1284.7573274 349.217133173 905.032673696 1340.83211921 1433.97722768 868.800467937 1325.04826629 794.758878859 1628.02688066 1294.82757658 1125.51672786 1366.52794721 1222.70880916 447.875709243
stage2_unit2_conv2_param_0 995.853822542 1213.93706413 1341.69796632 1141.74112021 598.950773083 1856.34309877 1937.15289479 1489.86410686 1157.69895435 1960.88316505 897.383733153 2112.37196748 1799.52651996 1388.4415745 1289.65764783 2176.4794267 1669.54461089 1279.1438893 1007.1839372 5219.57996649 2405.55338505 2035.97080187 1242.6598901 1065.74407764 1978.37616587 1391.91023261 1352.82078393 1743.15172653 2155.67848522 713.16569689 1205.85371364 2163.9616537 823.774059179 1248.19031813 2270.51238038 1945.46064236 2763.34779411 1886.78603524 2577.02901243 688.204058169 1702.1659427 1062.83436498 1744.02742863 1876.05495371 922.777914765 1471.56453369 1698.27135197 1230.8816405 1998.33661465 1178.27822257 1966.52495107 1138.33568767 2169.84984513 796.086359062 1992.26819756 778.032162607 1324.27547389 1890.98192581 1887.84737429 858.32820753 1582.29577153 2380.99731633 1425.14078473 1700.33861391 1164.04733288 1385.71243676 2338.53030476 1442.69543743 637.31934607 1105.00987962 975.171210865 1022.60316295 1078.24464154 2824.36991883 1966.02912888 2105.59289395 1157.8030673 1540.06912979 2137.07612095 2169.39377351 2179.18568637 853.087204651 1905.51909309 1091.62445481 1167.98100605 2365.6356372 1342.63536181 1773.33784733 1901.88982894 2299.87767142 1263.6727544 1824.21192198 1195.8567659 2007.96173886 1083.29006202 1520.2216947 1270.08732353 1055.41071932 1343.15651513 1306.45229068 1712.33864937 1110.08918576 1502.53808218 2358.89714889 1439.35906393 529.238147754 1304.22674636 1880.66891397 1132.91307084 1405.0955792 1294.29400695 1478.32892997 1285.11319466 1542.77621006 1650.99514116 1901.00407052 1791.93487257 2003.29134312 2198.94264585 1313.77501586 1042.79929221 1480.85542617 892.615306147 2177.95248297 1421.55394184 2069.49327835 1075.47593155 2660.32200699
stage2_unit3_conv1_param_0 1159.92920354 1073.122286 1030.8507696 1142.23482928 1422.6958138 1366.99524004 1133.83749686 1585.40720816 1375.19406526 782.646232904 1203.26769858 1057.56878268 1313.80468506 1405.89174016 1494.02949695 1298.90156188 1363.85331212 1157.18676185 1203.79829617 1264.46617577 1468.91605084 1328.73228786 1567.68190287 1150.20382398 1137.24129457 1347.39679813 1686.59748527 1535.42004866 1290.36769615 1112.78265564 1023.9065661 1592.57242667 1193.76210173 1572.43819581 992.739993715 1842.43471994 1744.12896709 820.282530984 1581.53045807 1568.77178892 1482.9167005 1124.28589343 1408.00820471 1103.40274953 1839.36444008 1892.64315208 1135.36530463 990.757821195 1363.2178498 1767.90566994 1189.26421552 1263.72980925 809.686042686 1383.6475953 1430.53848849 1786.91007159 1441.06387757 1275.93323752 1488.20330359 1463.14529417 1737.28906998 1381.45722128 987.163225211 1599.36679468 1464.52030833 1444.43032227 979.979936389 1764.43525697 1214.79043339 1423.64616015 1541.01297014 1382.50876179 1472.6828384 1371.23956896 1037.24232821 1381.13776252 1464.51804343 1479.05663447 1670.84547882 1506.67418835 1492.89254028 1208.85212272 1382.81539345 1080.86669298 1100.53611758 1369.64491563 1328.83649403 1379.09991106 1669.6285031 1100.08382493 1214.37796025 1295.92047024 1131.21382841 1288.04393736 950.26104315 1362.90153934 1046.96208373 1366.25795295 969.489820206 1343.72203131 1070.00654069 1069.97752512 1287.22250775 1464.92797857 1161.37631808 840.805078989 1501.98956058 1088.12793776 1651.05047217 1687.60120948 1213.68527955 1170.53018122 1666.10282858 870.057321851 1459.16072283 1031.86063216 1513.00468192 1172.81858274 1495.68089453 1258.87838747 1155.08905237 1788.98652523 1649.82318733 1207.58054286 839.391285378 1285.82707286 1208.82443257 1202.23724351
stage2_unit3_conv2_param_0 3926.33185116 904.403912945 817.274066087 1178.95185924 1319.82342034 1802.85938287 2191.18688773 969.832696513 1096.05840157 2388.94529693 1330.33696674 1466.93224392 2153.30768403 852.994311253 887.709644371 1677.87254247 2126.60195731 6400.91815812 1113.44855682 2236.93762096 2544.23777632 1971.95220157 1696.66243133 1390.8130259 1743.56235874 1911.12380167 1376.54850386 1851.04198507 2456.34766604 4075.39746003 12555.3117083 2408.78074864 2043.91846054 1443.86799324 1457.51142117 2872.47377205 3631.4150145 2031.42679558 3821.8259639 1750.31128125 2717.6790833 974.545326146 10439.5155662 1202.50745893 986.158751317 2104.59433547 2366.67896904 1072.14437953 2142.90235898 5643.88962404 1985.20204101 2034.48641428 1365.11213121 2814.00879664 2632.60805748 800.953921324 2428.39174467 1773.66648228 1780.74208673 1038.66738407 1222.10840135 1885.07523767 981.679290808 1609.53330946 2671.23459149 799.320252336 2189.43304727 2008.39989914 2315.78325043 1202.07564727 2362.55634156 1187.67878645 1197.12780763 1943.86903031 2345.3108792 1777.98545477 1013.22362064 917.877890128 3143.8491556 3154.11796154 1649.81312731 939.297703065 1797.48373031 956.393246242 1950.17083004 2308.25588798 1625.80947157 2058.37811269 1819.95794088 1904.63037739 998.154930679 2299.32545212 1176.68846312 1807.4351356 927.56121485 1645.2915434 1388.50830348 857.402379629 1219.84271221 1102.23517612 1772.34216864 722.331949125 1320.46652294 2278.91632492 2577.77298393 3363.90726746 1414.39025523 4043.31206262 1533.52690294 853.897976993 1173.06467424 2056.03224054 1115.75420439 1051.13270443 2403.81123928 1542.73180762 1919.71791485 2326.61799123 1936.65944932 1225.4370341 977.649052718 1221.10938086 2054.99502106 2729.91599819 1397.95823525 1672.69446167 845.463151566 1787.87136964
stage2_unit4_conv1_param_0 1313.79860935 1252.48422209 1033.4422002 899.781593215 964.647294173 887.439278514 1537.77513291 1221.18199136 1032.87954758 1122.77664508 1026.55841849 1093.15740121 790.289645084 692.695559888 1096.43615303 1607.21834148 872.210756954 574.336075216 1236.98486618 1246.93610401 963.092532451 1153.42062969 819.492151397 1260.48849446 888.33502808 1233.65507179 1044.61518883 990.423125824 1149.46859801 744.211394238 1052.56949632 1038.59049165 960.533443149 1426.85637475 1281.25068258 1472.41124287 1011.94022793 674.016205506 1376.0999867 945.71296076 1190.60950283 978.517157179 893.594707144 700.832178385 874.221062953 1214.27181495 1148.30853147 1516.33491138 690.377627841 1188.52628624 1187.38756688 845.112888587 865.363406046 1298.16667 1169.1098922 1106.25147117 662.954759316 882.910014888 939.192538848 1160.61749817 1090.29717096 793.026004397 552.121284409 1141.63475286 1096.30668144 1406.78655568 489.628641454 1028.4493053 769.033469295 556.290768681 1335.83029797 1074.34074782 978.896018397 1047.66766904 1670.34806548 1464.34102542 897.616798995 955.522797919 1209.18982171 1127.54791323 1098.1270229 1101.47178379 1134.25540366 492.207378838 917.327218698 1007.88356892 1006.38520698 579.227335033 1178.6848714 1236.98567408 1010.29959178 1415.21531672 770.903459621 949.582492474 919.140979568 385.415473895 1123.76860442 528.582800285 1348.21228157 780.24304459 1026.26193671 773.626567186 1006.26353451 1278.61050437 575.331350718 929.930058839 929.916361244 988.058052119 1234.63493838 1391.10813961 742.961896338 963.614877668 1402.57976408 1159.33168569 1073.83740398 1120.33822576 781.297334679 817.230651216 1043.67331635 1185.43356078 866.340683064 1235.53692092 1146.92372135 1648.42012112 763.574530761 1189.93535753 1015.3148211 515.53388203
stage2_unit4_conv2_param_0 3448.33684665 1799.54969756 813.151758611 895.013093418 2316.94980845 1226.9708077 1768.21817059 1170.45736086 1409.18735664 2326.08079045 2238.38873896 628.44303965 1875.21433843 1099.36382231 1067.59804106 2129.214518 1749.61115939 4697.56115942 1099.84248922 767.02601993 703.684526236 1794.09081552 2048.71764804 1632.72758112 1168.65894131 2476.63490065 1463.03327486 914.470400832 595.202562824 2481.41108445 8190.8987701 2202.64495386 5082.57154754 2058.30255227 811.952177392 2579.7907651 2841.21419236 1422.74723168 1493.1794621 2284.09879847 2399.40364971 1059.27720197 6831.30564366 749.637815238 988.712889214 2646.31123141 2564.96377678 1637.32888968 778.232860105 6882.4469711 1662.15330933 2280.23406333 1913.85064676 3307.05056917 1837.57626604 628.001598663 3545.9828911 1246.06313238 810.74949754 1049.15201389 1146.11985219 767.477740664 1337.94704962 1634.96861891 4832.44405189 1048.45532702 2050.30709901 1619.51209524 2997.42102502 921.281987234 2302.02578035 1793.48354909 1676.94683736 880.702671881 1675.1572574 1534.63846497 1295.43719209 1284.09783811 1158.40137179 3297.58614235 1731.13952218 810.725589793 1698.87544186 1144.34452953 3663.00433011 1692.03142284 2421.10203529 1643.63763519 1490.68573086 1254.48234589 941.716753697 1562.25983462 1419.40947295 1649.02930168 1108.5779161 2301.28314833 2021.87256984 1073.27884362 1643.8400503 1233.55981306 2444.71827022 1217.55383789 993.970016782 1642.99505597 3494.67647667 5432.16060543 1281.60258605 2599.08274808 2592.37761461 998.565884318 1177.228638 1452.36191765 1908.83705213 1060.3343223 2412.36599281 916.896153013 1715.14329185 1536.71042009 3343.71715254 1207.47087808 954.105792491 1679.2825394 3719.82900919 1715.70867343 1879.5820525 881.255613609 1124.52694856 715.424450876
stage3_unit1_conv1_param_0 834.499717617 751.55947397 926.728327455 526.877758461 1278.43319176 960.509628001 648.895543802 1071.84720325 729.665746497 534.988829722 1276.15934634 951.238167094 799.154764084 1511.02076264 1173.6931642 1099.62133417 1328.20694832 904.442878961 954.775957795 1170.1656077 482.585882452 982.270901402 1305.37975534 911.363146984 1055.61627743 1275.81844656 718.712511731 1087.05837469 1216.4459965 1219.7182409 1433.23739735 1047.46397163 1221.05401022 1152.804068 1185.21158997 983.488948245 1288.98970784 1142.00272596 807.692456872 1177.13140732 1099.36906921 1215.2848874 991.216883805 971.012107195 1291.62295417 1055.689108 856.469853916 797.654935262 1021.06350173 923.275737068 1234.80147194 884.442126748 1097.93781446 848.929302057 1201.21650894 663.242016926 1092.71983798 1404.07463906 1051.06426015 724.585408288 1100.59843639 1193.46613682 986.603510403 1068.06202155 1113.48659706 830.329976743 1442.92869691 922.049543731 953.10795569 1050.94664237 832.66360279 1064.34780645 1144.42550833 888.257073086 869.653199742 1301.63155941 1255.07608666 787.25550432 980.291823994 903.399251275 822.05233792 986.200630149 873.929007787 951.006352 1141.08785907 879.995024101 1044.30549973 1001.11516008 1363.29351575 1076.1189793 668.210232348 770.905272592 731.080721008 773.832937284 1194.43431391 1292.94999073 1275.4829781 889.694678895 1029.91163919 1027.31842086 1192.03602504 1173.53834181 1046.92221582 1313.75972611 1055.34152079 884.577433401 578.006006557 1023.31044251 1171.3715674 950.116548898 483.281219851 1229.36689527 711.059417433 914.730098981 810.632440152 1240.79811432 528.249906797 782.235352566 1098.36137808 978.231547539 1039.38603969 1283.3678091 912.660445999 1393.18803723 858.375407278 1351.77327366 811.851398912 1012.41709016 769.795171227 1018.21197437 1147.06611996 821.290913781 1306.97649242 947.875852527 979.149955465 1249.88672668 798.369854107 746.086552712 788.910424022 1036.37292556 838.01445489 1280.13258017 467.210233994 945.167280507 815.382986513 754.08962215 971.3118914 913.577698087 1021.98821218 1083.14454207 1049.03237038 1422.95068339 706.032115136 1445.64824401 697.942099675 1164.28347433 972.660494603 1148.1738675 1285.03326718 1194.78083713 718.000593923 1230.49592006 1198.55247227 1094.51703278 709.274410507 915.251117482 900.072079897 1028.4986386 1275.60305439 643.635021651 1102.63010771 1312.02377116 1062.69687233 631.419159544 724.619783893 844.204213837 1031.64230488 1015.3397381 828.267937863 636.80101687 642.518183606 1138.80256504 1414.63440887 1414.28252576 1211.89856587 895.439911108 588.535709235 647.250014258 1186.38692734 1189.83668107 1170.20127558 1034.58479356 948.559672112 1149.92533738 778.133457501 406.93505073 677.283221668 820.004568951 990.562295706 1286.09046955 625.717288203 900.084627216 983.270529639 919.341849528 1093.80584042 798.902616251 723.415259375 914.261061573 1180.90883594 1009.89005422 829.268949689 1061.36236085 959.881767358 514.479096498 934.637502047 820.325402204 846.476001373 1277.99601808 908.944345404 1341.0936341 649.014531506 1026.29530322 807.183686582 879.110475079 651.135738869 756.483002661 1166.44188098 1115.32741254 805.51463476 1283.40481747 1408.900244 1059.2365223 1022.7638587 670.44870463 1301.04092699 1151.34245019 637.910703399 1100.76702389 954.270734707 1125.14912564 731.04754814 867.595370816 1318.61008384 1276.55291134 1230.49183402 997.54742374 954.503930368 604.653331245 752.569386762 973.802623094 921.874710306 1117.48918503 1077.9264874 697.486413795 612.662183256 775.867675761
stage3_unit1_conv2_param_0 1367.31718284 986.217063142 1272.18098089 2068.54635545 1060.96717769 1926.54144336 2096.17444719 7898.99014541 1156.57338797 1053.48485317 2867.30800112 854.87463819 944.801294791 1939.31649881 1130.15563369 1441.36108127 1034.23332905 2014.80669186 1352.95521957 2580.00240145 1239.90467072 2157.10522051 1288.71762006 1122.21833354 1524.80319931 1354.50056884 1851.74337567 1020.2257612 2122.80746542 1432.45583515 1123.75600982 3081.87492984 2531.0177333 1319.48872335 1886.74635483 2172.74982 1601.36110548 708.08861167 1305.31987737 1434.33511839 1580.4739197 2037.26376424 4298.75209335 1635.97791663 1165.67682792 905.217713188 1860.36900321 5700.44923174 1313.44823705 2634.51208074 743.311864208 1946.51101447 1638.56930883 1066.39548429 1084.0342426 2162.47947258 811.344946507 2214.94494113 1616.11884016 1742.24360265 1234.69932841 1323.22741315 1124.41797884 1965.57163384 2556.99985989 932.912216562 852.7580707 1533.90805722 1601.94532881 1427.47390373 1312.99447862 1196.96648924 581.228158096 2566.80480342 1356.93755524 1077.98913514 1339.04444319 1369.85217702 1823.94528266 1167.90474153 2700.31105951 3149.70252312 1156.78264087 1352.48395319 1710.02594244 873.080663834 1829.23187067 1227.20860892 730.977637871 1063.31159129 1965.13927238 1617.91649516 2529.81230994 982.608605143 1081.27917422 1500.33662377 2661.46636836 2059.95570823 1350.96033052 2917.24488021 8538.53235827 2031.89657166 6315.16252808 1088.11953294 1417.905491 3899.09929697 1706.71099333 989.611218471 836.213640618 1320.49690433 903.244149671 4240.14957392 1045.73701955 1440.40824536 1139.57021934 1163.11039082 1369.58956115 1115.12165293 1895.28713153 1340.58209287 1597.81736422 1016.91440503 1407.64031321 719.828147165 1498.32188701 1643.76982547 1043.85208131 1280.59574959 1046.12087221 2548.69247593 984.304818977 2365.56735101 1403.51936474 961.994701528 1159.99361507 1992.71607471 1229.26485098 1285.04973627 947.320408698 1135.35630549 1585.56057921 1358.46603654 1423.28490754 1179.5022764 1026.10823165 1390.50363153 1192.9444394 2061.22162056 2955.50055909 928.41137733 1065.77832833 1681.34625818 1324.27279894 1871.68201794 1697.60953007 7116.93930948 1174.49151911 1205.7354069 1359.22354868 1731.24009295 979.469982246 1269.75486183 1800.80826272 1170.84913823 1954.05497695 5074.01360599 1996.09852961 2011.92608812 1913.85021699 2031.9992733 1382.49474567 643.841812167 1588.27395053 1640.2597464 4829.63547591 1953.6708819 8528.47957693 1346.69432606 1065.82950856 1220.33560961 2240.77821981 607.715320729 865.654950783 2376.58527042 3527.07387815 3481.46539398 2739.0228684 1423.08551854 1441.57781626 954.131213804 1169.33613991 1219.38021913 2206.80692757 2308.74751692 1972.88614469 5841.60648354 1324.83837947 2293.23023892 2589.26945001 2245.7587586 1049.09480371 1277.66208512 397.927769801 1128.94708769 1061.02846398 3215.21307418 1634.74063244 4241.1993081 870.808946046 2277.45951798 872.956630079 1534.52503975 2131.87709901 905.773285933 2125.97560479 1257.54508959 1480.05346709 1521.20325979 7766.30686401 2095.25485088 1746.17188149 2077.88832883 2269.94711618 1531.54731725 951.724347836 1727.53724487 1238.56021051 1019.17259478 883.821202104 1252.38290491 855.831706888 1886.4055897 895.281887519 1905.45646833 1560.89019775 2096.39074295 1398.98017102 952.501334177 747.446346234 1345.83923438 2516.47775316 944.072055339 1300.5815087 2375.03239765 850.47361542 9328.37587786 1063.39596926 1188.9691495 2701.04467661 1009.28419859 1366.06086428 7839.42214284 1300.34339013 1465.30778549 1183.5441544 1178.45727317
stage3_unit1_conv1sc_param_0 3616.89869654 2742.52921937 2335.4684855 2171.22999727 1214.018681 412.264544292 2221.13349655 2147.39842841 2269.10616622 2604.24132977 1655.94671562 524.938780712 3092.81341749 1401.25922362 2812.18659832 3538.93672064 2821.9310303 1035.56933578 2018.64967458 696.13514397 2844.96136558 1525.30777297 666.204729845 1519.58405158 1834.84718562 3229.27149434 492.793248797 3758.5590123 2555.79179302 534.869103313 2272.57732697 2257.43203525 1696.67526628 667.909495982 1826.36447956 2041.91246466 666.839872378 1989.74447685 2263.25554923 2726.87600435 622.634534181 3272.42317678 947.941427745 3133.21758413 2431.55844757 2019.42596424 2143.19671455 1690.59172873 2578.69136165 1023.22376799 3712.56894638 1567.35526112 1764.61298438 2843.11618243 1937.42569623 681.808822113 1121.97575611 1406.58619073 1448.05556855 1044.24453073 1349.02149274 2403.25084969 3088.10173443 1749.33051344 2592.85298241 586.056582881 3327.40879837 2674.22409377 2067.55478034 1876.49114037 528.040936617 2652.31831396 1175.07139473 2052.68725341 3829.28649853 3480.98335727 2553.71915706 2253.58647403 1980.94892206 3094.55963912 349.980721635 980.908969832 3664.83223278 2952.22121363 971.067756348 1829.70233035 2998.59161403 519.723189635 1199.81734586 3859.28020802 2476.91686799 1918.13553504 1577.31086003 3725.32630185 3071.75180401 1393.95958579 1736.46505046 1907.39996531 1248.13456639 2815.14090831 1963.7833725 2269.65544778 2280.39269096 2738.47128069 715.43700244 1076.51710204 345.557179388 2426.9207562 3821.13885672 1319.18176059 1158.91810722 1988.85368069 1920.12402953 2829.0124354 3370.50931027 3008.84684655 2343.66260193 1234.87348344 2803.06110793 642.313404103 2929.41185621 3485.74237719 2174.24223551 2192.66173378 2556.94002393 1437.18808696 2583.38313199 3519.97391788 2344.35835886 2463.1903253 2538.11024641 2534.91022508 775.165680204 987.75207901 628.723145695 1855.41179435 2178.88442645 2762.54077201 1626.80453934 2101.94071644 610.559414241 2446.51742777 827.337037384 1823.89122256 2470.42418961 1592.45087143 1862.45128731 1939.86406061 587.611366317 3322.84238779 1676.28586775 1560.74699248 2622.61389237 1850.03205616 1501.28592675 1695.92964146 2746.32174205 3647.20370111 2037.56366617 1465.83008957 2510.20096759 3700.90280687 3673.4203993 1885.6726938 2107.4891461 1819.18780302 1795.48528875 903.250371858 374.637277413 5501.03366943 3285.08293164 4583.45038504 455.585796423 1916.11453757 1821.32033957 1875.77149982 2298.95719484 2346.45134046 2595.48554372 1784.08596025 1854.23874046 2814.23877024 434.045383039 1158.36980452 2122.34162044 1293.32905624 1479.93820146 2088.31289707 3545.36004173 1889.66145323 3556.93851552 1348.84898446 1637.903615 1652.46026428 674.940530924 1514.16280665 1444.18532006 489.223080183 1006.87314285 1199.21726756 3557.94489435 1901.66322023 644.780577054 1057.97700035 3683.79994046 1480.52525378 1858.4028002 2298.16355585 1144.7465399 2140.08038535 3845.59840334 1463.88527838 2404.85493452 1163.00357553 924.500883842 507.846652082 2257.25222403 2186.05754569 1993.73695258 2858.57263247 540.389108911 1973.11634274 2775.57413166 3570.38232442 917.875122275 486.431393051 1341.08645928 3431.39489699 2789.25401082 2130.91885797 2053.37591021 2303.92564139 3390.45262672 2713.21029927 2655.97887639 1875.20979996 1942.34708102 3991.4234989 1853.09154477 2417.3046383 1660.91885555 3753.10375124 1021.36414737 1791.14120977 523.362489328 2066.27093516 2498.460996 2513.25400817 456.689326808 2214.7488131 2841.34040733 2018.03834233 3106.89355072 408.440183208 2407.00809469 632.694261302
stage3_unit2_conv1_param_0 1806.85672539 1569.52509026 2107.4015997 2221.51097061 2145.37732668 1442.78030584 1339.34703933 1529.48966402 1962.26984859 945.98230978 1205.26232676 2001.47189228 1346.33937687 1769.52530428 1790.10871263 2051.70304175 1934.78194734 2281.29545809 2009.1735341 1835.05123478 2239.2887014 2224.63526003 1832.69095259 1549.11924018 1850.06418332 2525.90550229 1977.23929667 1569.9284 2299.31382114 1932.38634596 1701.8593594 1815.36388332 2145.56716659 2399.29388657 1625.66806071 1853.74368571 2497.24137615 1924.47489145 1846.47046291 2013.3195821 1127.24107601 2042.28628548 1736.72034919 1895.72050151 2091.21911771 1884.51837012 1856.97628881 2285.76087832 1306.73682805 1883.58689485 1812.29869113 1839.04097069 1781.99757336 1670.18554528 2036.54365406 1783.05393153 1550.77523116 2061.12167602 1347.37581662 2274.77109778 2155.41353319 1883.14345072 1167.54659963 2163.26203844 2148.31550283 1839.69259 1965.61265915 2024.59488342 2015.00509152 2327.62940804 1893.52218613 2198.72324859 2010.29788138 1851.057262 2231.11219814 1903.93301629 2170.45367892 1807.73377771 1848.67449909 2014.27861047 901.268307869 2130.12743674 2281.60600667 2044.14151059 2559.17042147 1592.07100076 2064.37171755 1773.9856386 1593.73535467 751.136221687 1921.32651293 1937.77302923 1401.86908647 1951.58775615 2095.60324401 1492.95164186 2110.90495613 1617.44610191 1613.02165047 2417.0681249 1855.8541939 1575.92943286 2166.0561984 2031.00974871 1636.78977307 2093.23889488 1909.13507849 1820.58754892 2021.0505452 1498.14173857 2134.774378 2280.76356912 2342.56348091 2099.30619086 1875.18360102 1651.48909366 1491.02397251 2222.80777764 2220.91427892 1987.71424467 1979.22795248 1968.83474571 2073.67543262 2257.54893539 1929.92805544 1448.2321161 2034.42655932 1866.58531053 1351.68516114 2232.2500936 2082.33750597 2194.95863295 2284.45128874 1736.76564912 1137.00810643 2036.63611901 1400.92144612 2013.6301968 1716.98633988 2314.47581143 2030.60569372 1868.24938691 1900.2028057 1578.3250279 1548.35220165 2061.18061969 1101.23268458 2212.45440999 2117.69662748 2003.5395244 1855.14342731 2235.32055147 1572.65247166 1813.70193924 2462.73657961 2192.58769755 2313.19040901 2072.27916843 1778.29076911 2177.09418603 2103.4244905 2492.2853165 2118.86752456 1889.06691042 1371.73415464 2006.75494827 2273.28441515 1778.80907894 2136.51240446 2083.26018137 1941.72578549 2046.67863361 1994.2260857 1907.45268574 1741.77734775 2001.67331568 2269.15041915 1598.17241094 1898.25110948 1822.96294281 1821.17887107 2342.61982101 1430.25329124 2122.34016706 2398.82201949 1955.6738655 1598.31402421 1812.4225955 1688.95313837 2090.02001242 2574.90916122 2236.17507014 2213.02817553 1927.04848119 1979.75229896 2047.25273339 1702.89188403 1328.80800663 1322.41006101 2157.32799428 1924.77434377 2302.54430621 2033.40956361 2147.72987593 2039.13377702 2049.18757308 1994.7721829 1888.23091168 1800.48109467 2472.10632392 1660.98326997 1975.68779368 2257.05256699 1930.63934464 1176.30413335 1803.33945772 2536.2203215 2023.43551571 2078.1569855 2108.59452374 2051.22060784 2125.88545526 2333.76914381 1910.31976556 1216.42030115 1455.22189608 1926.01704457 1557.683675 2076.69484394 2000.36983494 1634.7208787 2219.91192789 1733.76768828 1702.74167954 2006.34867748 1989.80974504 2109.89560853 1864.28414783 2266.91983596 1542.65027016 1948.59533949 1936.03716868 2481.85204403 723.959763561 2230.72707551 2152.52700182 1980.9355697 1855.42552779 2012.06715574 1777.80984451 2019.80906762 1588.0309854 2207.05180236 839.623402831 2055.79629857 2116.39799426
stage3_unit2_conv2_param_0 4025.22380074 3020.29455048 2272.41630089 1522.8244259 4046.98969155 2507.73147776 1686.52339295 1128.05442938 2061.9776248 3046.26472092 1340.12930916 4245.32256083 3789.5293062 1622.91684814 5117.64894855 4029.44239826 3112.3826567 684.525938064 3224.63566386 1567.80850234 4218.70454487 1521.31567455 9417.92601851 1929.61716772 1399.30851238 3778.50148208 3330.40029432 3056.29206887 1314.88786938 2660.89572614 8113.30175129 1336.94026392 1697.71080798 2515.40027328 1129.27737331 1816.13891328 10794.0103011 4607.52713468 2001.06141492 3161.72587391 1772.22294659 2039.83375075 1254.36888972 3993.74741901 1940.76276702 5572.85007808 2063.67916457 1081.28054602 2515.82146306 1016.73425485 3150.29132954 1539.70326603 1407.90237551 5170.99392777 4582.76924616 1668.53186515 7796.24047864 1508.37849942 3271.89993686 2724.05650383 2206.66522789 4902.44703316 6484.87633258 1791.8776074 1001.55715509 2797.13435651 4371.50820527 2258.33795408 1268.1725232 2090.13777228 1625.17223174 3242.39869289 8148.41180748 1980.47755465 2453.02520504 5430.91750036 2505.29040762 2902.2643362 1871.3912547 2516.67113991 3504.64230802 1374.94381506 3859.55765114 2669.44309292 1616.86831037 9047.07187861 1960.54756777 2190.53289741 3002.51367567 1715.63096533 1668.91969127 2372.36997536 1365.35050328 3751.95711861 2927.67979054 2086.34831958 2311.81346542 2037.07568567 4138.88756466 1569.89326478 1513.46573035 1650.2878387 1427.6522836 2546.13739146 3098.14612822 1460.9877988 2602.8097599 7365.16296815 4538.94857684 3254.55270675 7057.71911103 1115.56055256 1610.8210012 3709.16623132 7129.4503981 2704.48015135 1929.27449895 3796.65569758 1998.45797583 7778.10166177 2401.4820933 2776.22441655 1466.69153846 7279.94446868 2149.74158761 3617.66402195 9202.03606148 2801.85786009 8085.52611236 1902.10481765 9732.62161783 1715.86428349 3331.34114356 7559.75289755 9295.33169746 1540.81140719 1618.4094426 2144.97331985 3054.61831516 6182.07891469 2839.44197411 2411.14539684 3576.50687898 2869.27625142 1960.26956914 3349.66864819 5204.70874737 996.872207446 2878.48964792 6693.5779669 3276.51498542 2308.75298933 7450.72506553 2169.73052722 2788.10841655 1271.09333682 2019.18100742 2877.22151472 2641.43191534 1443.63443 7878.4047203 2292.1569416 1485.47574462 3112.7606175 835.952819635 1071.92667233 2161.35717849 1627.21965289 3142.07439141 1550.97009549 3681.98448809 12911.0419699 2048.44805568 2199.48161006 1054.28402446 2029.16257132 1167.97116232 1019.69710656 7217.56897728 3193.97547919 1592.76409612 6395.01423901 2016.4426905 1442.63597444 1488.67042018 2245.01221091 1239.45018477 1777.32547357 3944.24388726 3707.15637741 6960.12675807 2448.86548463 2216.64261843 961.415976865 2074.42595921 1369.88366247 1563.62857824 2606.58872981 1211.84230428 1050.91748501 6659.16708743 1277.1182612 3480.55333394 5194.39424723 7666.46181842 1479.04688083 631.230976529 1159.14499891 3222.92910725 1519.47907135 2996.61058516 1700.97506762 1269.71248879 2678.7730095 893.859931183 2042.09899099 1789.13430369 1566.81802552 1437.20529404 1288.22275781 2618.2513416 1701.63510012 1721.4489447 1467.82317493 2689.72808606 2104.7867722 2356.13526976 3847.82723024 5313.08654249 4151.79079622 7967.20109111 1656.44395783 7530.18622572 1033.6750176 1361.4758246 2191.3975994 2608.16233427 2585.8915472 3184.02929083 1579.60847928 3101.47597067 6255.74235327 1647.98934189 1713.94522503 14063.9238094 665.96297989 1545.98145945 6535.13187551 2417.0244264 3309.16376308 6163.38602511 1352.34510496 7634.18553743 6904.23208026 3653.71822753 2772.19246038
stage3_unit3_conv1_param_0 2252.83262966 1658.28893459 1504.753715 2115.9353518 1885.97438094 1686.75420196 1469.45549862 2159.12592701 1814.711414 1966.71418245 2149.41250031 2017.33259247 2442.48192188 2243.22195902 2346.20459044 1489.66880156 2086.89174845 2153.1115765 1646.608479 2110.46326408 1295.97889775 1235.17074277 1633.18953664 1814.31872844 2198.51509569 1806.04156417 979.536962272 2323.22845349 2018.75630131 1047.4167926 1772.35598986 1956.45995126 1518.09117515 1888.88981362 925.217063857 1999.96591048 1965.66252646 2568.54667795 2054.04968297 2319.04853884 2297.06195591 2362.70910888 2511.690845 1814.14378411 1039.07025852 1764.98535993 1611.96439988 1628.5720645 1254.22139969 2151.67762348 1135.2071976 2063.3501711 2628.9375906 2551.32219236 1748.30888283 1571.2067712 1318.31923127 1074.11578545 1305.24251398 2098.16145625 1798.91329063 1789.8690517 1976.32093437 1771.9978136 1805.78518366 2102.41398421 1855.9233 2099.87255955 1994.87910359 1523.03519046 1610.61476512 1516.61094459 1539.4942592 2274.94596873 1903.76077572 1622.81811717 1833.17679667 1783.89290061 2057.81887335 1273.06308602 1643.52194652 1747.89421978 1450.34491755 1402.36063569 1959.78590873 1325.53317571 1924.34214523 1165.53311861 1573.28519446 1599.80525788 1162.61798167 1918.12560615 1433.73708496 2335.51920478 1567.34848756 1664.97828881 1323.41069117 2618.11843135 1844.14218166 1229.25190826 2449.32169975 1116.69837934 2142.07361339 1667.72150849 1889.9755245 1454.4158076 2062.66966001 2548.8534943 1460.37722265 2458.67793322 1798.17034125 2009.10177972 1382.85734999 1084.59722456 1381.69596037 1849.91279381 1999.24905891 1390.5757772 1999.14799979 1455.81262593 1962.42279045 1681.43681408 1206.67320036 1462.13936791 1498.34546227 1292.47000314 1270.42147433 2311.92054404 1412.87240911 2339.30809027 1043.92112386 2237.26014108 2048.8570268 2120.33204487 1616.04866562 2243.98548396 2446.85808313 1978.94830736 1616.95895614 1085.3890225 2263.31685417 1700.93806527 1663.29269954 1497.99730872 2089.12603426 2556.32782523 1415.86079393 1157.59729717 1617.02399422 1284.46747132 1811.8710333 1898.02240817 2258.61175696 2103.21361794 2093.64254714 1786.84975553 1899.72863795 1978.29970635 2015.73567236 1622.44184451 1288.79703209 1690.62090438 2115.65605153 1651.97869887 1672.95171169 1998.80081881 2146.48294751 2005.36816435 1945.67893221 1965.34591199 1803.69743907 1505.81024036 1512.42151977 1652.10502858 1803.35681921 2090.68907509 2135.78425908 2034.58148528 2706.48465389 1611.90174971 1984.08179529 1090.07056609 1528.38143428 2041.59477563 1441.35766864 1512.5640469 1232.86202527 2180.86021969 1627.70616276 2038.92998795 1850.38611898 1708.38886155 2046.90351551 1709.05963062 2081.98448178 1690.37830758 1497.86106725 1308.39844994 2060.50739201 1934.21376574 1618.55942948 1748.32645613 1437.04790097 1957.01813683 982.517418109 2172.16186976 2174.80647814 2085.61823352 1723.4533324 1671.39300856 1433.63000555 1213.60716372 1557.88540525 1430.37174952 1401.15336992 2172.9575545 1688.87850428 1184.54148398 636.415567328 1728.43605746 1725.00437747 1775.48993171 1871.04492257 1688.0940741 1688.81676043 2046.29423686 1982.66435433 1216.1116945 2051.81454737 2062.19340711 1825.06917021 1296.54117454 1764.4778133 2211.29543568 1701.34433065 1955.58860577 1685.89987374 1960.58252046 1903.66998984 1452.96159759 1780.67046717 1659.76283543 1657.90764548 2015.95142127 1208.72662705 1713.27974301 1598.92467219 1952.52039684 1685.72114323 1655.94044166 1799.68383535 1677.74141584 1701.72122908 1436.16766888 997.891742631 1635.88606798
stage3_unit3_conv2_param_0 4269.9423407 5055.42071749 2536.33410182 1954.38969947 14358.9349784 3887.35681379 1377.19445517 959.268114899 2428.25198551 3585.16512551 1517.14062684 3580.28397656 6519.07980118 1076.56347143 4513.61684737 4266.10504629 5351.14682466 1109.1269202 3380.93129564 2153.85798222 4275.79771647 1251.6595296 9098.73651083 2618.6897797 1488.92151574 3286.7174845 3053.26630244 3551.12892855 1167.78232301 2771.49291601 12442.8034006 1432.78285776 745.612425833 2163.21248521 1385.66399879 1321.96557142 2506.81667127 4723.25183835 3414.8700047 3823.63873031 924.597768206 976.806108561 1718.36603054 2747.17465714 1979.38354934 13790.7025989 2139.48366373 921.856562546 2678.09288362 2604.07104954 13670.6992801 672.729782845 1753.41222951 4439.24138257 2716.252129 1386.71225376 4044.01520036 1864.28047769 1722.9913318 2431.07605925 1656.13688757 4322.2630337 12401.7586659 1548.4408134 872.073852854 2858.0372592 11406.6881532 1630.9327714 1566.69561789 1757.21517821 1946.59770748 4473.05254973 11735.0913538 1233.93209311 4074.37924854 3778.13507696 3243.27998017 2935.92950456 1874.45238897 5631.71044104 3488.68058129 1804.12181956 4647.87875349 2645.65672655 2363.4393246 10914.3763758 2758.86208386 8869.70088136 2703.02608515 1801.01832161 2209.00502946 1271.75974277 2021.54813905 3913.94954677 3307.26808773 1249.57244967 935.099778163 1687.39706168 4047.97863642 1539.69728567 1085.7587626 2514.55961499 1797.39616398 3313.55832257 12246.8854438 1002.84736911 2962.03354312 4175.77911769 6723.28742425 3057.85547418 4907.99027596 1873.17774145 1979.35412886 3727.69663636 4443.57297214 3003.31540593 1549.2321579 13204.5872323 2535.7377649 3835.35739372 1902.91427311 2824.20543259 1424.43361027 7400.53866482 1676.64580728 2265.98246972 11966.8773118 4070.43322512 12635.3889716 1505.08255705 12427.9649555 1548.6085002 2573.72958285 9523.02818823 6981.22256256 1050.28432726 2046.54483389 2287.76001301 10841.1277115 9532.80096683 2580.32343652 3589.48995729 4360.56502679 4346.00735389 3104.97840551 3221.85543353 9701.39344761 1666.26569534 1919.7935888 10854.0626637 4656.38107601 1559.78425526 3199.90213048 769.681021335 1628.55168159 1333.53513232 2602.88308959 3100.47322127 3874.68888449 1901.2464267 10575.4924615 2773.32704053 2542.86229364 4794.315067 1556.48035906 1350.89791105 1123.058414 2836.92435163 4833.60951656 2033.94396326 4734.22033669 4082.74505094 1614.06347662 2981.76547461 948.800752555 1802.79607861 1033.35674525 543.443514705 13759.4022586 3524.72615269 1260.99968086 11519.2730235 2518.22804716 1788.02834176 701.100776886 997.57135953 1917.38446763 1850.40098334 4514.23364802 6528.46902375 4309.52003616 3746.44646946 1852.30398532 1020.50630121 1800.92070663 780.917347696 3335.82324042 2879.4509667 1983.98157092 1448.28871885 3736.98044359 1929.10200944 4601.63100082 3034.61022834 11596.0401876 1765.48826143 1750.29564501 1128.29792493 5029.66272406 1563.95725573 7064.79435261 1545.36868177 1670.27326625 4631.36924439 1535.61494645 2704.13413008 1844.42214347 1477.58926079 1288.23249361 993.651103928 4057.22249189 1444.81439155 1500.1969197 2470.43940633 4446.74775186 2197.76717658 3026.47249145 6004.25845962 5646.97188557 5639.01835076 11226.5936319 1932.90347929 11403.2447203 1023.40419775 2244.55961415 990.926233027 3548.84697715 14253.4161421 5025.93927028 1723.18763436 1522.57985432 12220.2558366 2516.01660581 1408.029954 14683.7105391 930.502065204 1656.30392739 8484.48856641 4052.27928872 3602.1751818 9277.85716415 1019.46487203 13482.5704343 2742.62232718 3976.41986963 5943.7925809
stage3_unit4_conv1_param_0 1967.96915839 1841.17459274 1879.17798845 862.646057476 2139.10656981 1075.613018 1761.26447612 1866.96495957 970.365694964 1107.63438974 1559.25547697 1767.65835192 623.568954104 1863.89702803 1554.53112828 1988.89034615 976.154980342 1750.78265632 797.231132255 934.051086176 848.680433568 1999.97764335 1210.40883811 888.393364401 1365.11486436 850.918210541 551.672591707 1739.80382826 874.470243959 898.169514388 1641.52848205 1089.703875 1606.57832687 1110.0950416 599.756357843 728.945940236 1010.26845479 1917.27038103 1143.49931604 1225.82875701 1459.60865795 1374.63977718 1205.84842474 1703.9653498 1445.22047575 1096.10752696 582.986842136 1378.23862224 2042.87861169 1627.99438337 1169.13017954 1770.36942298 2004.16872986 1441.48882269 1101.87535677 1287.44903789 1287.40343378 1766.85344353 1656.54473 1638.23938583 1588.57931601 1609.85952456 603.69434266 932.974614208 1285.28141392 1591.26946486 823.327781384 1934.83289801 1405.83330118 1036.30802798 1253.47764843 1672.61124584 2116.42939612 1569.79668719 1878.4008093 1828.52879225 1759.79163046 937.759233123 1475.77884128 1995.23192979 1529.33912698 1068.980199 2144.84039399 1473.04821925 1386.35844971 1480.97173542 1091.27341497 949.232003817 1547.0646789 1907.79917625 1200.62560142 1020.03259408 2011.86624723 1525.2429429 1171.26701208 834.50331282 1788.54183496 1259.71374042 1179.6546762 1470.30612303 1231.56695469 1790.80249322 1509.26103277 1742.93605719 1563.64865933 788.629231844 1642.58325213 1997.37491527 958.988450496 1586.42118696 1746.92045487 759.761479047 1655.0704299 1660.56434195 924.089401813 1500.08773625 1088.74225764 1573.29782797 2015.15683528 1339.64966698 1920.48747264 1730.40089618 948.254774777 1345.7002597 1115.88115145 1879.08601046 681.623098146 1411.96211795 981.274659362 1362.55901713 1306.95113915 1262.59511459 1554.22184705 1628.99103855 2007.89740313 1379.61503502 1894.78360898 1015.94646927 1813.94300659 843.136064149 1183.08791399 1547.04249417 1520.61050611 1897.86285718 1609.995005 1618.73926597 1618.31279571 816.98952405 1721.81219398 1757.53750165 1444.11594643 1625.28891574 1865.8534348 1332.93614913 1059.22171251 1529.3219756 889.39395876 1762.31460926 1690.2143804 1175.90439811 707.218013808 771.595727356 996.533835021 799.014212863 1098.13572452 1731.36969176 2219.02111465 1225.42029562 884.609567928 2333.84103871 1115.03907858 1873.41346584 1132.34824612 557.699066288 866.132816048 931.770212437 1618.03336828 1631.63435328 2059.3876496 1887.94878532 1625.87336261 1232.47586486 1607.76832798 1277.49891805 1197.39943185 1445.17783537 796.512071942 1649.5136183 856.285622456 818.505156794 2048.80309531 1960.17804751 1155.92139086 1638.54772985 1903.07849907 1076.07855824 1127.13433731 1494.26196896 1681.19203707 2000.8711534 1622.46655329 1777.86417428 1423.544387 1358.30658242 1670.52584282 1607.79714139 1820.79116158 703.280269891 1446.20558038 1011.87126616 1793.93617557 617.417597768 1236.25065172 932.068880675 1092.56407046 1761.48142894 1039.22330985 1911.58502483 1019.0004156 1737.84824133 1594.94340914 946.653830505 1466.90851066 1009.13816536 1658.32813796 2338.30141632 887.713620209 1333.04435173 1500.40186312 871.719743787 1539.35648201 1149.11981299 1540.74775936 1073.27965457 2085.18552867 2166.08799013 1292.27148506 1893.82681119 1994.03712171 1244.94319719 2050.12301543 1088.29119759 1768.83304089 1186.5904226 746.412211179 1130.57540447 1315.43348155 2003.36127033 933.762808879 2059.97798899 1109.33733187 1914.9220092 1591.1763292 1532.81505776 1607.49055898 859.482283997
stage3_unit4_conv2_param_0 1326.28669449 5794.38469471 2510.96547403 3592.52018379 772.061380633 3330.54833463 1023.82587853 1759.86448746 3650.71645244 2545.49728238 2082.72614902 4676.24713097 4335.02180519 1468.2875749 1851.80875593 1047.30803313 3318.90486673 3838.20473366 1662.32237562 2266.72012296 1610.68583831 2005.74831215 1338.61971366 2064.40084445 1332.10530521 1645.5509176 3225.49816497 2809.07019886 1614.25102903 3643.48157665 1271.37567033 2251.23175192 986.209303049 14895.2860393 1753.73478309 1393.80103643 2235.98909661 2024.57444359 3440.76086173 1405.32321001 4125.14164577 2139.75022004 2349.81962167 1923.89754624 1441.48796938 820.011353969 1373.61920734 805.548895304 3712.02645292 2436.19335447 7732.22241685 2634.84499271 833.687832643 1373.6323799 3082.6019776 1963.72884965 16606.4553421 1856.06294236 2859.22162801 1311.41882909 1509.03509247 2805.87363302 1068.82596516 1836.38509113 2446.14597573 1880.98228612 3972.16941745 2641.20230558 1580.34980867 1745.00368653 2505.46587479 3298.5225827 15947.694549 1385.5337963 2574.4496814 840.01391753 2401.4831083 3417.73957719 1903.57092192 2479.24072769 3390.70081506 2531.66580823 1335.25404037 2232.40913198 3965.76461615 787.955318886 1857.50221933 2981.26456684 2560.54399168 2998.57447043 1865.0149968 1908.3525838 2957.52354408 1558.32734429 2448.4342335 1673.19031736 1266.02056081 2573.54189867 3592.29153751 2127.52963135 1282.3500946 3708.53637985 1869.93817713 2917.40864872 5023.43165395 1340.35471421 4830.3906122 14901.748129 2131.79884567 2991.78076394 1445.15296298 1874.84741184 2884.82514828 1736.2174311 1492.7016689 2880.74735611 2252.68346936 2118.99883102 1704.9820137 891.010337102 1861.52583982 1760.10744826 2438.83336451 767.458873791 2638.88143817 1175.28747633 1208.35535022 2696.02452506 1057.03625654 1617.9220236 864.741333563 1820.3412132 2474.12629536 2282.10299917 4541.24585258 1028.52644108 3467.68986346 2221.46667445 4525.0559139 1911.07323498 2896.49523978 2309.52939578 1643.40500658 1696.53983357 1908.97728824 1931.84387263 1806.72477177 1675.95837961 1364.76161308 679.487154735 3390.04265603 2454.78818141 786.891205427 971.407431858 846.780615749 974.56059294 2429.84789135 4307.52872812 1667.47728263 2402.75032946 753.754631622 1577.08101335 4249.87445486 4570.21056645 2779.85641779 1470.35266896 917.0406846 2586.74564794 4419.72205976 2340.68440205 976.8328659 5036.57068178 2702.41049228 2976.50457796 1202.8428951 1795.93211436 1470.94737178 1647.72457942 1381.50917248 2755.74150112 1236.42712808 670.577153316 13939.6941795 2069.80412727 698.184464386 1108.26185969 1920.21812213 2207.5911757 978.312170725 4813.79424986 1313.67325967 4580.82829497 1213.02092479 1400.0053268 1702.67687694 721.068754207 3831.44607027 2976.83154039 3714.21558819 2533.89562845 1752.33304343 2030.08912471 5558.35675102 2826.15897826 1925.4242019 811.612121274 2542.98330982 1085.28819658 1632.35764207 1828.64609793 4434.9756355 2038.07283707 2092.03824313 4301.14251743 1460.41838732 2409.55096437 3605.33057862 2766.54490591 2405.68765757 1267.11978853 4347.60522448 1963.26383173 1627.06992048 2836.09643857 5164.81288109 2759.46413174 1361.99070574 1783.07276981 1189.1202727 1186.14561498 854.276967809 2481.81771545 16223.0900912 2556.49268548 2966.4700679 943.449514567 2871.83834282 7673.78129906 2111.14822704 2558.73689782 1091.42643862 1066.64025079 5581.04822978 1582.33263919 17379.4830844 1386.08845305 2206.06492028 1335.82726208 9338.03565725 2440.41893083 1780.76273656 1116.93882627 2167.52082492 15268.9608924 1782.88701562 3159.21783684
stage3_unit5_conv1_param_0 1114.19485265 1580.98082324 1539.63456425 1245.1334423 1255.82136648 1605.08200257 1270.55774093 742.834846474 1593.8690289 1148.52455481 1059.30985329 1982.22075316 937.655032047 1901.27654 1377.1954566 1247.7773251 1161.21278273 1600.02735815 1271.22462811 471.602910972 1668.64603785 1607.93364002 1235.16555158 1142.57377923 1104.73358506 859.571741165 1272.31401645 1042.00252553 1527.31627374 1445.52037728 946.124078778 1361.28707077 1527.34733929 696.994840595 1005.81203522 1841.11672245 1667.17947936 1399.90127201 1627.90047505 1696.58221729 1550.58013368 1176.54300054 1139.53898442 1456.11445229 1320.94347764 1425.56890788 2015.23069058 1307.8621691 1287.1512596 1111.85371813 2013.3193443 882.893002948 1336.62030738 1098.81416768 1008.52223184 1878.21680746 1589.86274874 1611.63215044 2067.09770153 1607.29169169 1654.7617803 798.301131001 1514.32678341 1496.68121373 1426.05514895 1097.75326644 1539.00957626 1408.222703 1327.11256692 1314.22566624 798.162300066 2121.54889878 873.165459888 1566.02645836 866.852543669 1548.60709329 1606.02612771 597.834181831 1348.05437248 1338.62717748 1267.83135014 2123.83688161 1848.39865676 1538.89328108 1557.7910112 1746.4450731 1958.80849882 1151.35559297 1452.57863169 2050.37874395 614.336300896 1423.46866104 1647.1410325 1067.22132022 1763.87837827 1403.33610389 968.062125348 1457.10276093 917.583010016 1889.03215831 1423.35443352 1822.18655912 1470.01410504 1575.83473347 1849.94752688 901.036961983 850.488297638 1094.46608219 1714.99764779 2028.27306449 903.843500269 1478.12010219 1336.07771701 1723.29686554 1573.46513221 1700.13510356 1109.53511221 1044.8597291 1068.60471299 1163.16658386 1462.29226987 1554.32388775 1059.38793496 853.595915476 1230.54086835 1023.1715001 1567.92646876 1940.34169153 975.25322751 1136.43055478 1186.54557167 1543.18139569 1375.19950167 729.643570688 1541.9975832 1157.73740476 1459.30113371 1483.86746075 1287.46051235 1134.011669 1227.04826848 1567.3385435 1141.71351327 1552.84037365 790.165014453 1411.91931237 1319.33195639 2161.21865201 1224.46352704 1671.15425983 1142.1742116 1477.82176928 1567.88002998 1445.04747925 1435.8716352 939.211789592 1397.85356746 1459.38022041 1839.359875 1484.93469203 519.773617769 2124.56842105 1804.29426327 1853.45161654 1396.84472302 905.773767244 1081.27382421 1453.62709856 1182.54587756 2043.52873005 1571.53531021 1228.76843585 1672.92133664 1100.56880387 1386.2324006 1013.8031024 994.868289959 1984.89782283 1510.66214245 1585.97246831 1053.17359252 1758.97535434 1518.34769608 878.733687006 1266.37543666 938.348869455 1577.61903266 1884.14279543 1253.33276393 1699.59010544 1612.14856774 1325.73018778 1339.19719717 1506.44090059 1176.90465234 1177.03736248 1188.49487886 1880.19241492 1484.26180594 1102.87901928 1381.25471608 1046.14745261 1811.66998831 1121.1150249 1802.3077175 1454.29370576 1149.53379106 707.901996386 1894.75938765 1669.96939169 1394.18008749 1685.69080282 989.729586599 1413.10619844 1092.46015675 1437.96075146 1525.33848388 1609.83139736 818.361567657 1881.95357267 678.257015564 1157.07074255 1290.17031156 1541.43507194 1763.60937664 1707.46835404 1669.48885094 1883.07438296 1119.70914661 1424.09622897 1523.33272766 1373.41722281 699.775179634 1528.03671738 1417.20453442 939.403201465 930.217801587 1776.04806076 1253.49921807 1159.03607351 1190.31967056 949.784188305 1536.88749268 1794.18920231 1552.03149069 962.931924755 1099.91757586 1335.41911293 519.908817243 1486.90902366 1546.19938452 1642.55048768 1220.4669356 1942.68710325 1442.16813388 1240.99685231
stage3_unit5_conv2_param_0 1970.16893984 3296.17498897 2020.33981374 3174.0508784 7192.06378224 3571.41204003 1617.91526662 1619.44039485 2759.95762279 2490.56579284 3145.14128488 3524.86427485 3229.74538775 2204.87070321 1419.90441281 1095.21183948 1977.09550265 3253.62895197 1511.06965424 2520.59618894 1750.28306433 2259.6438272 6503.9686547 1614.48144033 2547.20559004 1731.21020182 1950.48257363 2802.16116636 619.011540302 5722.71251108 1024.43356194 3290.30900718 1888.77762762 4477.23871596 3237.13361321 1479.31592311 1273.38149134 1870.57554526 3046.66518304 1350.23264035 3669.98591722 2826.98789707 2760.3283598 2633.69329206 2078.89504042 753.291417667 1092.12754178 1286.41882355 2549.91500947 2559.51281111 2767.52051264 2412.60244053 770.040269873 1128.43327057 11870.9665543 3327.64589344 687.937196983 1963.52028811 1554.43572273 2396.86646906 1061.69593891 2788.41377072 745.580660521 3409.652991 4032.56814999 1826.33121343 2206.3828827 2137.7583624 2628.98563837 2471.8871047 3652.054356 2629.79379332 641.700572761 1770.26443863 2263.94812762 12659.4437733 1857.55829028 3640.48842745 2027.89615284 2040.23391666 3971.59329037 3243.72311823 1392.67422171 2255.84372292 3081.6384137 3013.49327886 2262.51098938 2310.58551429 1903.61832867 2148.53145465 2637.89479373 2466.62713114 4358.72521839 1672.42793759 2519.13054021 2250.21641001 2021.89607294 3253.64572025 1702.3860914 2227.29575743 2124.21919933 3853.18087331 2588.15802481 2450.13620138 1788.59419519 1687.94613435 2757.63401553 745.501682946 1997.56661926 2453.53788671 1289.38781389 2431.40843933 3019.4914864 1706.51176357 1565.94085756 3108.82013176 2131.04233755 2126.57370183 1967.51030592 4161.14817815 2283.29534988 1873.06844312 3028.16825313 2378.62800426 2452.09536898 1087.52825701 1810.86413811 2417.93951141 1288.57626164 1908.22397495 1209.4934659 1981.38665681 1682.15928852 1735.25115347 1843.99295664 1983.06916371 3703.92372881 1936.42755959 2732.40245876 1743.51509855 3234.84431941 2440.0152731 1482.7185692 1938.14318493 2249.87722581 2017.58235475 707.808872582 1697.79907672 2228.65716816 1094.00528273 2664.63104493 2424.25301777 1442.36399679 1304.65958496 1480.6650478 2032.44895743 2108.21898246 3654.50509205 1768.67373175 3290.31377063 850.223840792 1664.57571162 4410.8845073 2912.99334318 2360.07145101 1687.78017179 1725.69629675 2599.54392764 4206.21185407 2974.09460313 1270.08164543 2145.62523244 1885.72296829 1844.90983514 2562.86449129 1103.94721048 2195.47090259 2259.37082221 1645.8043351 1897.52714807 2496.97744061 953.794224453 1882.23557268 1353.37598675 2079.33376228 1296.33174238 1442.27258748 1967.62727026 1134.17004688 2799.58343002 1007.06064359 3267.04456293 1672.98093846 2468.05481869 1875.3088262 842.03434124 2825.29753058 3906.92890246 3857.51642827 1958.4515595 993.509095987 2365.36300843 3731.57942799 1179.20461043 1611.5321976 2100.16038674 3175.17838502 1191.87674263 1235.54739914 2136.83728528 3535.14220258 1606.08408473 3895.91114234 3662.1756415 2111.34657157 2292.00098776 3074.08181091 2638.48542577 2846.85292496 782.512002848 3478.90281823 3081.28440379 2998.78574596 3110.39461744 2912.6414326 1246.41930151 1526.30794586 1277.03014043 905.837786144 1540.03601405 1145.0181393 1614.60699401 2994.15848848 3597.21081857 3286.48428472 1282.68918555 2687.70127717 3282.08030613 1730.13972499 2030.88972517 2053.72288632 1434.03248033 12003.5952763 2490.48228052 2929.6628423 2551.88825118 3116.4486999 1178.2035392 4733.20383057 1458.23286691 986.027090095 2411.08196099 3090.90325561 2089.88394519 1203.30991511 3533.28278158
stage3_unit6_conv1_param_0 1254.72539023 1486.30717887 748.192662804 1554.13937394 1580.31171475 1269.76734729 1518.69103156 1468.34234112 1222.69091727 1638.93497778 1342.90636184 1533.21861297 1475.6570865 1464.20228429 1312.02760872 1250.26837795 1340.93781 2112.91830105 1763.71777041 984.311526012 1472.99577449 1662.14471915 1223.00287253 1570.02311387 1047.11103652 1170.33079074 1526.00760602 1359.19591113 1556.21263963 1544.49506691 1130.22629826 1658.21101736 1236.46300342 1591.97777125 1091.95396531 1575.65891417 1973.46128361 1777.13887677 1913.17958699 1013.637193 1234.8305439 1292.90546708 1079.66901989 1464.51439444 1710.38112558 1120.98415662 1092.1603603 1419.19722516 2024.80652 1645.04463416 1623.4583051 1396.34307719 1654.16392861 1572.53887062 1885.0729445 1674.02835732 1147.19203133 1322.44791899 1220.11269101 1248.90255049 2027.41881994 1515.85849813 1073.94139106 1089.57013809 1198.71143663 1486.52649369 1753.82500387 1317.62474353 1586.19030132 1299.59448072 2001.15655925 1935.18655201 1667.91080419 1109.50441878 1173.74335287 1368.9718315 2116.75319185 863.41457694 1889.95917933 1394.78129168 1592.69920906 1200.23705667 1115.12508164 1076.79578642 1241.01004353 1375.51533098 1935.8504965 1272.26634455 1150.61136041 1374.25786913 897.435231608 2287.42307665 1271.95561511 1603.57654516 1531.13872719 1251.58839595 1922.48215002 1485.29931894 1046.08909307 1921.72334239 1130.14701666 1351.78860341 1510.0498821 960.151460766 1659.7925729 1586.24742597 1667.51741102 1195.24178414 1414.79796851 1701.67009427 975.67680912 1738.25478303 1659.69883883 1297.33603471 1516.5548124 1107.26643391 1647.21536598 1383.46746565 1194.74591617 1422.68465199 1522.49472158 1578.61619931 1589.35517313 822.254575724 1020.55133147 1824.37221636 1962.02026795 1401.81663031 1800.6832781 1313.55704403 1544.52011759 985.850304078 1650.210352 1030.86523305 1461.26672075 1486.7176044 1226.33806255 1109.99289853 1998.17380763 1541.8465266 1435.2008999 1440.34178997 1549.77768936 1015.21673742 1363.29166216 2111.71040903 1551.3896221 1054.63065431 885.082031221 1737.65053304 1255.89936685 1405.99042495 1345.16057076 1769.517038 1542.23880508 1314.41983795 1367.52428885 1578.65932871 1221.79812824 1189.48206271 2025.91496736 1364.98466911 1197.14975164 848.984099776 1450.08865288 872.130697643 919.022342954 1006.97092957 1152.25226499 2089.76326762 1658.04117349 2190.13168568 1523.68662973 1876.53555522 1168.40700603 1827.05864832 1958.53594388 1654.75969196 1713.44386904 1541.98098365 1619.91087134 1862.27711088 1395.79584312 2100.71763737 1232.84374583 2217.57912399 1262.90063193 1586.94846045 1173.85190763 964.181855 1746.92922753 1094.38850585 1825.47610292 1568.85972105 1047.2059871 1894.94032539 1550.24619788 1434.29565236 981.464500729 1679.48191525 1491.53083982 1700.59188273 1444.708345 1295.90805631 992.306091531 1304.62473561 1445.00693153 1370.59026369 1462.52350231 1959.34189962 1380.38022665 1071.21840457 1980.38551689 1663.65049 1378.92955278 1486.10179195 1313.52070556 1039.57107369 1368.22472351 1070.28791221 1220.27646535 1500.55890985 1447.10320079 1170.8212316 1728.99761084 1175.78313552 2123.31794907 1279.88843554 1654.5096118 1565.0195513 1719.20538288 1218.29099539 1853.7932801 992.779426646 2208.14983496 1598.73076752 1294.13393338 1386.73718588 1704.78659738 1577.78988604 1112.07046206 1385.71131026 1079.48680176 1094.45729809 1129.40651846 1252.11593306 1359.05470622 1352.22537931 1237.7604875 1504.0022362 1500.03229245 1283.13517871 1537.02649139 1853.58121214 1744.26889182 887.642707704
stage3_unit6_conv2_param_0 2200.45408769 3801.71135285 2242.29199077 2398.7940003 1418.1634845 3601.49705331 2850.56303467 3438.61920175 2641.55410365 2304.03821921 3624.36193755 2365.84445983 4164.81492747 2838.08065102 1841.38701386 1502.00703083 1975.4693581 3040.34062214 1847.23965602 2630.66618454 2188.72150498 3396.1468219 1504.3203945 1422.65603578 1940.91281655 2001.87807108 2618.08626146 3154.29452139 2818.16852434 2879.90340249 1586.34293814 3081.52058705 2595.08486661 5175.50821343 3937.31976964 1748.13765137 1528.10973067 1927.51785964 2621.13182836 1977.73803636 2678.30812125 3444.27289642 2728.06765541 1297.40940238 3823.63958802 1315.53216016 1850.53376886 2666.33496444 2634.11697149 2303.8934116 3747.50858047 3250.25614567 2889.72381874 1168.66438976 969.271511887 2914.63954169 3146.01374614 3046.98187039 865.453212884 4332.96748912 2947.04307316 1989.07694324 1475.09239688 2063.75324629 2504.3556722 1708.43629139 1813.10504747 2319.55361437 3453.41236189 2219.9983741 2903.80690908 2962.4222035 8505.63955168 3525.11430716 2229.75026653 1075.06420376 1688.50074947 3064.20829708 2075.28112087 2282.81618119 2913.84908445 3618.00648903 1530.41769208 1804.80395739 2782.48037357 970.568248753 1288.02125981 3334.61661562 2386.42449446 2216.02793974 2861.30198046 3216.8999321 3185.52670395 1450.70744549 2615.90999588 3454.88856277 3686.81412624 3480.28613331 2337.62030927 2517.43178545 3452.8327959 3264.86786046 1560.48523203 2904.41697416 1872.69885813 2395.32165762 2434.34085382 23405.2277941 2759.49272215 3488.54885005 1442.60032341 1912.30816995 2943.83177365 2023.67838266 1371.77047363 2473.3173007 1986.82202287 2826.17818998 1624.53533642 2717.98393987 1907.91277909 1615.99197884 3095.00942784 1779.19211336 2424.11856096 1540.88912874 1180.20566823 2122.49833298 1570.40946238 2517.73353206 1526.39692272 1785.63661939 2826.56857259 1880.98955095 1977.02670908 3039.37375709 2699.8485016 2206.19569211 1831.75920782 1100.52034358 4097.62539868 2213.31279894 1668.89191339 1897.03636884 1766.86241752 2253.80235524 1391.54979546 1826.63750331 3558.93846759 1363.17184378 2389.85264251 3124.231038 1718.39669242 3572.4779141 5526.75740999 2858.74761888 2305.66676685 3022.61063179 1348.4979127 2530.95196698 1039.96874881 1850.40279118 3913.2190365 3450.01434115 2652.1555126 2844.31740301 1899.69560963 2386.34431217 3256.23072144 3163.16363583 1575.5469172 3939.20691185 5231.29574995 2370.15587312 4530.38613614 1020.2471948 2792.63742704 1123.07572865 1766.74759392 2656.57804929 3302.42017869 945.610341991 1798.33462917 3205.01747152 2575.86714867 3120.40656108 2866.26391792 2224.75198207 1542.69159629 2718.68274624 1715.8173039 3811.70376557 2553.28709571 3377.67501707 3554.6891233 2206.51140721 2590.65702311 3470.08829118 2915.04751859 3146.04945596 1399.08351475 2673.99671791 3902.35029633 2573.1163106 2367.02470478 3089.82751572 1901.00004238 2886.12784846 1797.60485884 1229.57209901 3092.88272344 1589.34494787 2697.86598267 3554.03838757 2336.44325727 3570.43093549 3092.13931963 1499.0541199 1179.7430159 1753.08348411 3208.42894369 2913.93600629 3116.7527066 3402.61258679 3850.63440555 5033.29769194 1757.15612558 1604.85668373 1805.67232278 1412.70297193 1577.32881279 1497.81842284 2625.29068743 2507.85415425 3248.52949026 3002.32672856 2831.20727499 3266.67954303 1269.2888193 2502.76919558 2099.22707874 1593.29916939 1057.67817433 2496.55577169 6046.42853777 3345.99800092 2406.27958587 1846.60928649 4162.80587938 2090.90398377 1772.74546813 2658.05903083 1786.50610659 2166.43184087 1627.43482499 2998.35531343
stage4_unit1_conv1_param_0 1934.5160372 1292.92321733 1534.43359339 1604.86408756 1048.01485819 1810.98534513 1651.09237269 1470.21659064 1491.68590435 1382.10061665 1804.47705522 1197.20844109 1561.04829714 1298.48776756 1999.69656172 2093.2441645 1912.61243179 1726.64986064 2006.92270105 1522.19696789 1045.11463639 1585.60821876 1675.78801114 1379.64875752 1630.46242203 1613.0801135 1880.74486081 1247.15387652 1865.88447984 1054.83871554 1450.28864755 1224.18827864 1312.24143642 1465.35237786 1532.21212017 1799.09632307 1921.62043692 1572.01228382 1392.91548795 1155.31280269 1011.94935947 2115.70922714 894.870441467 1543.23588362 597.829485135 1051.29198854 1183.63011879 1458.4225114 1215.69320828 1257.97794368 1175.60489654 1136.53898573 1873.06247427 1611.1451497 1536.25573278 2306.15526536 1390.3061767 1313.47019943 1936.06795435 1037.31826361 1783.03472062 1908.75475852 1190.05149776 1360.64932669 2029.29084633 1867.59191263 1464.86717235 864.148454473 1663.52839538 1481.65052742 1305.18035004 1689.65964408 1357.03456457 1247.15980771 1599.13152568 1786.41492604 1541.95252813 1699.07255376 1359.57220345 931.942909211 1545.56583328 1796.83779766 1562.51717773 2026.48530596 1263.28811999 1491.97680255 1612.12950868 1695.06515295 1688.52868215 1385.02470978 1546.33656577 1113.74953126 1837.26372269 1677.13872826 1431.45883267 1520.07148531 1938.53133926 1832.87441962 1207.80386893 1535.41548458 1209.37298525 1762.27069966 1232.70965377 1874.26565636 915.993787924 1332.58403898 1557.32533051 1497.59313219 1561.47687037 1942.32317769 1840.42077418 1519.42408104 932.726502757 1482.58509261 1418.31794802 1009.49328371 995.426263019 1304.72689241 2070.26655269 1693.88216953 715.168531069 1070.65873151 1598.31926963 1705.52655092 1778.23808284 1302.52413769 1331.79182057 1187.95267968 1100.11172732 1372.1032848 1194.39020712 1368.91697115 1519.82020853 1355.58281996 1770.04053814 668.42315792 1724.96370388 1957.42917392 1364.93581131 1888.36855469 1704.7119213 1648.93901248 1231.23994349 1579.67245045 940.888280286 1817.66595616 1459.37709676 1253.37810586 1777.69285207 1343.11164152 1717.94588249 1623.17014258 1345.7531687 1647.49015564 1271.52219566 1165.7352623 2026.74456932 1202.02648179 844.362452991 1559.12996976 966.443191584 1614.34214601 1410.18273152 1540.31977027 1500.97037227 1689.99267675 1421.03415787 1229.2176025 1465.76530112 1228.86322176 1529.50050603 1505.07418474 1743.51866527 1582.83353388 1692.64738463 1718.62123308 1425.13959321 1150.30108164 1902.09845006 1800.78619416 1145.61669702 1656.24084096 1494.16595907 1370.05322435 1512.94707062 1288.77013809 1522.78578979 1049.17913601 1648.24622049 1408.43621928 936.997552191 1326.28989356 1248.36052885 1521.24968996 1164.37135612 1464.77188165 1266.92351932 1252.48063292 693.760853961 1870.21904985 1063.39424442 1508.07770183 1550.00965307 1525.52004472 1716.1672946 1445.40062235 1315.54718659 1344.74585046 1471.87229213 1466.34809885 1717.03321056 1722.37623828 1597.40498905 1172.85998087 1020.9839343 1327.76041559 528.581161163 1368.36970788 1891.81385396 632.017516209 1506.08830986 1111.54920078 1787.15006496 1669.97609963 1587.2029177 1839.19872222 1579.65576182 716.98360755 1657.34184157 1383.74464218 1155.81048416 1712.66640021 1240.33936309 1383.99799419 1796.29567889 1375.55196148 1257.37051024 1503.09257136 1648.22454526 1525.49615267 1817.02945703 1657.97553566 1325.06804316 1243.96197628 1868.33621138 1086.19035228 1235.25783589 1284.63697381 864.854618447 1429.07913191 1204.60494538 1172.66149009 1312.60228346 1367.51233029 1504.59379691 1695.87834794 1896.61674707 1355.92669701 1889.52068932 2070.69346459 1468.39217813 1389.19802336 1192.38357678 1565.12114658 1562.22031698 1246.55292883 895.508028951 1188.00898043 1404.67549577 529.167335595 1439.7330228 1481.29670043 1713.63093872 1977.59118714 1399.74814989 1446.92852506 1297.1263457 1416.72925464 1231.22687022 1498.8917204 1400.68925378 1353.78905921 1724.09587609 1441.69279272 1442.82805634 1452.15170124 1673.88221505 1219.84637865 1545.84728519 1301.02166223 1850.34132646 1328.45859147 1246.09920471 1668.6468546 1152.5141906 951.789287433 1825.91607577 1765.09374014 1484.77093991 1563.39094341 970.170956201 1460.49609353 1173.74715154 1919.98712503 1491.33783736 1948.58954784 1705.32964488 1147.37102589 1349.7211585 1523.9747476 737.600645689 1749.29101836 1590.19705991 1611.34649498 1264.98876144 1699.52859262 1543.41586084 963.058034275 1188.80173128 1412.04352589 1769.86925023 1750.06490814 1705.14489486 1310.90597914 1545.24021706 1195.49209441 1243.21818896 1526.1383582 1686.21457821 1599.79024318 1576.5000554 1369.58758035 1661.04688007 1663.13398337 1438.62277756 1521.59610501 1592.75367812 1531.63497928 1656.69091975 2068.04856726 1823.65121096 1262.46148555 845.563891233 1349.0653741 1245.48198172 1371.93387765 1830.43245372 1515.89718795 1646.94480525 1567.86892546 1481.00042956 1399.45613819 1080.38056692 1027.20265268 1683.07231217 1075.9581283 1539.28308506 2081.36735859 1429.71201743 1623.26752512 1751.23953185 1706.08748747 1261.79591266 1809.24978559 2274.28396896 1658.60277481 1576.33341715 1351.30840071 1343.121378 1136.43729796 1650.82501352 1687.74541237 1590.96380684 1621.72160562 1617.14610814 1381.7239605 1444.51906735 1298.73341995 969.195898704 1772.25390224 1562.96117568 1393.62907795 1831.3370738 990.943284748 1518.38218495 1636.3826445 1865.6206299 1242.39740926 1850.26942193 996.937740474 1149.9301471 1208.17437872 819.435421967 1701.45301788 1517.53907712 1432.74889633 1194.50604672 1638.75031111 1559.86104782 1416.88081483 1220.80818323 1543.06796138 1872.85832151 1456.48547091 1341.15546738 1148.47766032 845.164345136 1674.54869283 1645.25882962 1296.10621506 1639.15940694 1683.31564226 1290.56514114 1278.30635089 1421.22076706 1011.60920107 716.948203618 2183.13090965 675.872272358 1302.98722051 1328.6127713 1702.23852598 1252.91102004 1607.28729655 1536.77969246 1517.94044023 1415.39946045 1952.20420066 1244.88518946 1426.93807585 1464.88920301 1547.92391389 1552.7963802 1751.87631743 1384.00057875 2120.4390013 1310.39856703 1699.90875554 1184.11309922 835.54198775 1575.43202398 1350.10922485 1419.11380883 1209.22061676 973.790940417 1448.30287023 1324.84157156 1677.21381361 1514.66318812 1502.17063566 1316.44563963 1797.92510349 1319.80155155 1759.04723612 1548.278085 1139.41010131 1073.39590315 1275.45100611 1325.89910188 1634.92439648 1701.57768566 1163.65461211 1067.06024563 1817.0441777 1792.21823831 1723.61296484 1489.24438444 1879.16265816 1430.43668787 1574.09516591 1582.03216642 1731.19490499 1348.20513701 1318.18323137 1247.22861365 1535.31521992 1159.34382872 1142.09179106 1615.87218366 1493.08346048 1764.541195 1607.88055446 1718.3651644 1541.83899547 1225.41950276 1940.33528623 1631.71494737 1945.39492073 1530.30777501 1208.6016716 913.377968419 1306.89031534 1032.93994779 1808.1786652 1783.3257263 1726.45801439 1280.24468721 1247.93801269 1370.16324182 1824.42161848 1632.16367089 1473.86248286 1582.09618722 982.45523939 1477.14558405 1483.50921734 1354.99381441 1070.92719123 1194.62659734 865.071003959 1754.67371378 1712.31422362
stage4_unit1_conv2_param_0 2509.75874638 3030.66346253 2302.22709924 3455.56373781 3419.5321661 2150.42271708 2070.91862306 2434.45037025 2585.81387615 1805.18679935 2953.26721282 3046.23695655 2228.46282875 2590.84288031 2812.76596388 2605.00328818 2408.53756221 1703.19662711 2654.84956534 1552.57574322 2725.21911331 2713.13666738 3081.39190725 2389.50355612 1434.63655602 2731.78457821 2296.00981084 2549.00671883 2662.83383052 1773.86453396 1602.63168071 2223.37170087 2146.47010848 2497.42870729 2489.84129618 1928.99154501 2869.39506996 3204.61225739 1577.1609778 2296.06640814 2374.00169259 2367.94589982 2382.7623283 1793.01436492 2630.40434552 2727.51807038 1715.174184 3144.56948458 2306.64974548 2670.11318545 2273.85831943 2206.00467909 2567.86314513 2370.36153912 2557.08789288 2749.29241386 1960.21659376 1032.52736417 2129.02330601 1645.18864231 2173.52958355 2597.08454402 2949.17771452 2406.03384763 2322.43442538 2087.34203175 2508.28942979 2931.30071967 2068.44595034 2263.28890592 2495.97689468 2185.46041077 2207.93288659 2421.18164716 2765.79974006 3152.87239022 2698.01586775 2813.80533619 2231.60218803 2200.46971113 2073.83147421 3499.23884066 3087.76749284 2517.13791698 2432.4226126 2863.05639552 2560.17056377 2107.79300941 2601.63287716 1797.90101955 2759.01726023 2536.91089674 2655.01538565 2073.31109066 2680.01925955 2905.72876429 1986.27749188 2575.25421917 1672.4594434 2903.85365682 1735.02984056 2674.21801033 2608.32277269 2532.75200231 2408.51833403 2449.01923811 2612.57799113 2535.38153037 1652.12376352 2813.97883315 2848.42876698 2690.09123251 2488.79794719 1699.26852561 2572.08740055 2748.2627042 2419.97032487 2254.52986199 2520.04578872 3039.26049497 2449.86399513 3295.14305507 2449.79639312 2373.59392472 2511.50377352 2757.07245453 2280.43341911 1271.89496795 2557.95147446 2044.4043309 2463.97703595 3232.50063785 2566.33932439 2123.38936496 1934.57136508 1250.86410206 2100.06348689 2280.05990343 2792.42858217 2120.02877458 1935.16084733 3410.05305156 2566.13185515 2860.97661331 2417.78294813 2460.29953684 1942.42012264 2271.72231698 2677.85222874 3315.29839531 3512.62884637 1908.11802454 2287.65377908 2532.73205685 2356.02047427 2207.71169177 3119.8254458 2697.89971604 2448.08698628 2557.1625051 1829.17337465 2542.55790732 3181.81476274 1526.37464336 2864.0562755 2693.2984315 2808.84153202 3067.23786236 2966.11311883 2945.21300333 2521.28014545 2541.75225178 2001.37648298 2604.91272134 2759.57849693 2840.02718391 1970.57777467 2467.77218577 1949.73005146 2981.48201472 3379.80440434 1802.96350135 2281.51439063 3026.73984829 2498.80180194 2195.3131252 3025.71232762 2819.18205266 2477.01207121 1990.21236558 1163.58470986 2579.79584084 1988.09514827 2190.52163727 1849.50813926 2378.18861726 2208.13996624 1919.20327408 1943.53302626 2383.53299025 2499.95364827 2240.48354425 1936.06817425 2395.4675826 3440.9744451 1468.93326653 2761.7049131 2479.79058187 2187.10321212 2391.109796 1682.88520861 2293.81518558 2796.3751465 3294.55648856 2957.59333388 2491.98417384 2700.72199859 2164.28133414 2674.50270288 3038.65205876 2557.54580053 3144.08400922 2516.34420177 2881.80664805 2999.59525155 2612.41402597 2205.95900075 2656.05771582 2490.26979512 2224.06489194 2259.86431601 2691.92012733 1632.96016879 2881.09379279 2641.18839112 2215.92999151 2230.96998802 3094.03275756 3048.49023787 2639.23568302 2501.48901603 2259.3786086 2052.6035828 2432.42400104 3016.90383091 2166.31455045 1893.33121433 1227.59271291 3094.9535132 2357.5479252 2343.55949035 3256.01830941 3235.59866367 2236.76326101 2125.89314418 2881.83393207 2556.98048961 3028.27961403 1889.21849481 2426.81813533 2678.88099442 2770.97457051 2424.13597056 2982.38291003 1482.25788649 1850.79819134 2011.42823482 2205.66313662 3039.50789422 2994.154018 2272.589598 2657.34567519 2838.10569571 2784.07463289 2455.33714452 2159.68098201 2935.49897933 2639.45309835 1893.10138417 2650.15833582 2667.53710384 2950.59869696 2211.99460707 2245.35806343 1815.0163309 2110.83986681 2509.34771098 1951.22607247 1752.16210349 2957.31291174 2918.58852488 2098.8530574 2369.99719852 2715.79858929 2381.7646736 2495.48432044 2226.10010864 2263.01231552 2231.22098506 2001.670495 2775.52938916 2775.71763376 2104.34997465 2967.15607454 2819.07807944 3916.69566588 1446.00634216 2511.5117295 2484.94496608 2347.66452887 2530.96643528 3096.07640777 2924.53536597 2925.10799165 2159.30330021 1031.86806541 1949.84223479 2367.33667664 2094.21178128 2288.35568911 2685.15862758 2407.53198294 1511.67872011 2683.80533086 2470.02468351 2853.3114902 2413.20392656 1752.47248595 3437.5932193 2536.4831827 2119.09366627 2732.65564717 1772.68997591 2564.27597716 2136.96319311 2841.25918328 3305.7906154 2224.68665106 2265.48178404 2682.43355739 2658.36558265 1647.78462939 2434.86818767 2997.49429183 2683.69546975 2731.7086214 3146.50911082 2691.61088863 2114.69357574 1408.08799416 2001.77063392 2209.667663 2671.27331355 1491.19641224 1466.74542842 2217.41498009 2046.85411099 2879.10905849 2801.07053761 3327.53351266 3065.67505104 1634.39187662 2477.38413581 2286.24266402 2307.40178025 2527.99845286 2724.15271517 2758.57656028 2104.60810762 2502.32775204 2631.25134969 2565.1839892 3337.42014575 2433.79828446 1727.01793305 2430.73094484 2105.84964092 2152.14570398 1822.86683336 2450.18040099 2858.40365909 2835.89920789 3027.24352102 3087.17219061 1984.09057118 2183.78832066 2626.04620232 2649.69920667 2027.51600493 2841.40316378 2667.02415305 3259.29091019 2896.26663597 1885.32668615 2633.09422796 3221.03535483 2762.10722594 2315.89085445 2137.85635898 2945.03643076 2387.4456192 3270.53013008 2570.22328891 2825.02571446 2074.19536811 2057.36832347 1864.02176945 2969.86239861 2606.89169693 2865.25093705 2176.6567442 2751.31684597 2069.67809279 2093.57363242 2798.74315966 2092.76037017 2994.19083412 1740.45204852 2880.93431932 2652.91851999 2213.155895 1965.50703946 2970.77362925 2777.24464619 2609.9314402 2978.38364186 1524.9540725 2778.31611726 1898.24540184 2156.22235881 2669.2963656 3798.54157979 2519.05682787 1990.57725772 1909.99525864 3033.68398782 2877.86345858 1517.26392147 2707.42028858 3241.8961079 1613.7034737 2775.2736163 1728.27132488 2672.1215036 2203.40759001 2334.68493655 2554.65071878 2522.31881335 3368.64290894 2453.24956517 2458.70985138 2673.3678601 2502.84214152 3050.92513706 3213.78881529 2575.71437545 2868.12673153 1802.59589861 2921.45101289 2185.67380594 2162.63750442 2945.80368304 2556.31632414 2643.42968924 2151.12599551 2966.01092797 2468.3267934 2434.2231781 2997.72597558 1967.58525234 1982.46766049 2962.69793107 1512.05083348 2051.53117643 2428.95596091 2249.38110812 1826.80213987 2687.22227051 2802.68064736 2851.6422215 3708.11686659 2531.02731668 2339.32751344 3098.23707251 2211.93849061 3022.73042868 2185.55190077 2401.31665958 2943.26348324 2560.66669671 2345.76676923 1945.07880845 1740.81411798 2597.06930992 3236.96947984 1653.62826868 2827.44556915 867.043644022 2635.63474792 2717.0918801 2431.41693641 2285.56748539 2433.74789791 2687.09433831 2592.99753983 2532.22825579 2158.63594315 1322.80988507 2117.9118617 2682.46458417 1912.76159407 2349.79500301
stage4_unit1_conv1sc_param_0 4771.7740841 4242.10439558 1380.02651752 2453.93808265 1150.7392943 5111.80394155 4480.73798733 3562.07957647 2091.33470346 1587.75511334 2964.83984885 2212.62658022 2859.46504733 2734.2202791 3770.75471852 5569.19259873 3803.62008587 2082.39601578 3296.42869069 1344.62131452 5521.20658484 3207.13227217 3689.39120467 2963.84335474 1343.68739419 3296.36079935 3786.69902125 571.657006027 3993.87702094 1922.65215651 1373.87683764 2131.65248602 2532.91458839 2976.84141796 4535.80677856 503.382276424 971.607984015 3836.93556063 2265.70552178 4684.52244459 5010.48581733 2209.43652656 2914.10837094 2892.70199028 1511.21554412 3344.327918 1223.53565219 2255.80685367 4326.84641012 5952.02334207 5159.34532423 1953.6227407 4731.78611812 2526.47906111 3894.82555379 3880.69265975 1551.33300381 872.327882443 1962.66094828 1096.87648645 2916.54357983 985.399387775 4368.92360923 4606.39126373 6143.56007087 839.571874407 2614.21135823 2668.31441858 3125.57672085 5810.60568213 1306.5373084 2938.43552708 1500.20536987 2659.33212923 1307.24601944 3298.41918122 3134.53211306 6718.11697176 3757.84972703 2462.60671456 1722.02788599 3214.91108286 4482.37342292 2524.80048891 941.704683637 2509.16006497 4034.81225963 3215.00961797 2610.09549353 1624.59386286 4521.08146024 2757.41832943 3505.36662657 1820.91934228 3528.4636371 2542.71701357 3257.67635663 2877.09573409 2753.09389508 4166.33476119 3013.08231508 2612.15300548 2367.97846632 2955.17672842 2895.16964307 3957.20610707 3801.0331538 5325.60609642 2508.16929415 4916.10500912 3339.81542783 3591.66593747 5371.39227847 2195.84224961 5158.73714462 1218.12609957 2403.53685805 1187.11360344 5121.06144355 2755.44103331 3147.4482927 3693.36301402 7040.02415943 2552.33168652 2709.59884702 3473.50510873 2251.06348034 1899.43586916 2890.29783953 3848.76119694 5570.33234316 3844.08202139 4354.18892818 2023.208076 3570.28211503 1718.06916927 4588.79159647 4737.82912072 5140.92757277 1027.27372011 2989.65402738 600.865024189 3427.59577793 2732.4929091 1576.7402339 4589.69325583 5795.8736813 1971.39868959 4196.95162173 2750.95030137 3941.69416675 2386.74110009 4853.81179619 3361.47101895 5378.18149509 5958.4242173 5764.23553028 2695.52485746 2993.08989752 5082.17565633 1458.18471504 4507.7254042 3148.49561984 2648.04115842 3252.86152251 3151.56574434 2682.91782582 2008.18718299 1511.7033879 4379.80529715 2278.23145907 1882.33908394 1547.17308434 3025.72548621 4895.45261023 4457.85230506 2419.50334101 3528.79051906 3587.56652235 2795.6408786 3041.19740917 5403.8331847 2471.76487505 3067.01158915 3617.16464303 2316.11836604 2606.74120117 1169.82430219 1296.73459455 3029.19663533 1309.43984051 2938.25495459 2083.30206536 4109.01489464 3349.09146344 1824.50344052 1608.22673536 1695.19697854 3310.15982266 1170.82187497 2876.32866178 2687.36038317 4362.13231816 5240.38810777 2813.6300029 1496.20419787 2654.06478442 3489.09618893 920.837745893 1335.49496793 1733.96892362 1002.07364328 1784.06598018 2663.46585714 2172.80105749 3502.35384442 3917.52335939 2542.97818821 4128.43169272 4261.67735435 5552.67989828 2609.68629784 2325.51861463 3699.0102582 3251.52187268 3434.00104376 5423.17660204 3248.1240311 6708.51662971 3159.19675808 1366.16181037 6440.13695715 1247.95509788 3566.59585485 3414.7239505 1953.23814409 4753.16159428 1786.67407541 2970.24147097 3534.75770074 2812.16177701 3922.31861402 4083.03966218 3046.88628542 3184.61493807 5768.16889582 730.829146436 2560.60245781 5072.9682526 1074.16776958 6106.19627384 3793.20859269 967.904362779 2823.07630619 3020.56777522 5156.73210485 4042.32395836 3770.58456006 3278.37398403 5059.79283129 5238.33238891 3560.61040797 3213.61916439 4411.70561189 895.021458481 1315.10952997 2430.66231498 2151.75761468 3410.81113893 3595.70912046 3490.50013218 4455.91028448 4651.89940574 4579.20388996 3898.55085711 3050.53692964 3175.79628134 5964.97663915 4819.18163302 3729.49911339 2688.11305003 4585.98633337 3706.03804691 636.278162342 754.840713485 4005.61715659 1999.7866494 1090.97329186 4477.28810845 3895.85905232 4601.19594292 1566.65025991 2549.23582768 4170.95756791 3587.01804899 3182.10581568 1744.75630499 4500.74950154 3590.78978262 1841.62654365 3314.78166079 2327.05028141 2452.4906837 6931.17708135 3881.32402079 1129.37321923 1847.61988676 4058.0328794 2042.68215139 4436.67252023 4801.40328458 2164.60536968 6640.49648368 4139.21898048 718.390950736 1555.30785031 1614.26967965 5120.36343008 3493.87170366 1917.51452997 3730.18630764 1700.39153458 1819.96435334 3730.22100053 2731.21752142 2845.21969715 4395.3408218 2986.53865532 4466.25046297 4997.25270254 2365.78387777 2923.66456172 2619.69532256 3001.27740119 2750.86484014 4093.17566929 2015.95046758 2505.52074784 1426.15763941 4947.96962652 4652.65808071 1146.64743772 5119.68713465 5624.5931193 4031.59053378 5957.22632287 3590.08644438 3788.54176188 2133.01328587 1504.54054271 1789.06764076 3769.37012484 2768.70276265 3738.92681788 2426.98606491 2606.19716944 2202.61008766 4283.66489676 3250.06217325 3376.39144915 3884.89204105 2021.81189601 4041.9990107 1309.38421626 2053.3113522 1763.56905172 4520.46038937 2448.52233568 2100.95843626 2337.09003252 3501.66457903 2950.62806526 4602.83816599 4489.43816243 1295.00720344 3230.19126208 2191.05957893 3420.97885145 2996.9757031 1600.13850653 3988.01172892 3204.72462249 492.124730504 4071.30359699 3614.95038323 5019.54003423 3301.93047673 6035.20642919 1246.81561827 4792.82042302 4278.26280205 3299.78530553 4513.87771196 2343.98762389 2916.67832312 2918.2877207 3654.29629904 5604.18183749 4466.71772759 2184.31988088 2095.1264705 3541.65844176 1200.73960873 4539.12564949 2283.52262014 3323.42902688 2304.59332797 3058.10124664 4147.74318433 1195.38486562 1464.32152712 8757.22433108 2373.8481227 3274.31873069 4827.9187363 1906.31845273 4172.38001158 1314.60037992 1860.14182764 5378.2001611 2656.89564808 2394.88415758 3708.48877646 3848.18425608 5284.4520686 4690.63918379 3372.88259651 2535.79963054 1916.41613366 2746.68063658 3391.96693849 496.282476975 3862.15794184 2313.98409609 3106.49946265 4066.53849373 4387.24508551 1388.41341453 4936.39267626 2153.04263455 1508.56619171 5006.59694345 3817.48215846 3372.4645197 4442.31793245 1657.96311827 4892.38778606 3272.24570871 2759.19389229 6394.74193954 2842.72500859 2800.15761369 2651.45418903 3460.63140781 2409.52678123 2993.65603741 3002.41927372 1566.22272812 3635.89603676 3517.88137237 2468.96068057 3362.5021378 5408.04176518 3611.74254695 686.878461451 3888.56287357 3012.8458553 2433.79081322 2848.24290531 3350.78672777 3745.0846036 4220.00955897 2069.25360899 4058.54207264 2880.88002933 4889.23669182 2687.44152039 3789.90382328 3471.87152305 5437.76227838 2061.84830179 6729.04555068 4679.97650794 5401.15517754 4146.44944335 1471.78790624 2760.3893767 2818.78671555 2429.28429934 3174.17322763 2115.47015486 3278.53256913 2565.54729687 4871.820278 3891.92072156 2994.88393507 5242.91668687 1481.22770583 2614.28452988 705.185059468 3663.45463916 2839.28967935 1127.98941047 4183.55327691 6123.92230981 2741.69439985 2989.95792398 1563.14391993 3895.59105559 1527.0643747 2508.22742286 2884.86616027
stage4_unit2_conv1_param_0 1540.11644046 2201.35862429 2959.90775512 2414.0933841 2045.46598374 1492.08937978 1670.27883095 1894.07807437 2501.05573033 2717.40916791 2405.98545313 2276.90037021 1839.19177662 2307.65964885 2477.84185475 2547.08493288 2430.3070961 1629.48156801 1723.80801447 1993.49189313 1798.55208174 2590.85725386 1996.91885919 2110.91959524 2464.92018396 2578.88038295 1960.61657235 2186.21006989 1480.47073227 1666.45205396 1923.48419057 2745.64691154 2307.3824151 1626.40205202 2566.71996507 2150.38595789 2293.12025722 1844.83196285 2289.72004772 1599.91757675 1827.77019979 2614.33224401 2478.75527702 2183.85644777 2458.49867496 2161.01096407 2423.88777821 1958.28888695 1802.72439 2665.52420562 2546.21973358 1891.23327396 2266.40095668 1842.51597491 1847.14937671 1882.63533869 1167.37372701 2330.77299344 2226.88678572 1221.81170268 2384.66773293 1648.44100441 1722.42392583 2093.20817741 1936.55889828 2586.73583425 1587.2911545 2206.10574912 2235.53455969 2315.31975504 2096.81147451 894.077757507 2447.03090541 2354.23143717 1737.65372153 2591.51013832 2514.43275798 2208.65297026 1008.74986528 1972.12856051 2465.94271304 2302.7755803 2554.38618415 2278.52822941 2332.99535588 2287.33007206 2467.22086276 2664.23413792 2471.05163199 2356.95202455 2474.37554432 2257.7687165 2552.97523791 2516.24483684 2458.52420569 2213.68718802 2285.20974877 2465.34513925 2332.10402004 1637.14411302 2176.19850155 1681.719159 1896.45447838 1342.47600734 2052.79528139 2707.82866271 1776.38621673 2137.80970559 2707.59360136 2305.99006981 2440.94470702 1959.94206934 2525.77899501 2018.46728769 2541.89344155 2422.76706465 2445.51164346 2102.25944553 1887.5513582 2413.05788237 2317.13957177 1830.4008082 2692.21200332 2886.01643553 2441.8785223 2358.46681524 2345.29474475 2487.06526805 2577.34872335 2147.71972806 1879.76259059 1834.86496158 2392.76202845 2230.06561153 2521.0148329 2110.4737162 1920.49223292 1810.17299113 1764.18032722 1917.23717123 1796.38275939 1736.03954251 2592.0961434 2569.2935046 2075.65323267 2711.90581479 2239.47404733 2418.48206657 2310.65457834 2438.49511418 2233.07754549 2567.83780743 2153.63361162 2088.37071972 2468.38183894 1256.85095519 2451.14085943 1694.9881237 1874.75771302 2486.8929129 1864.97520657 2414.65063288 1922.20291891 1946.92654422 2261.74591168 2184.60024702 2705.22891575 2604.46356305 2519.64701989 2338.42170949 1873.64080562 2673.42425441 2517.20482597 2018.92008852 2517.38140843 1808.43169673 2229.60473032 2302.12713496 1928.15997517 1816.46231201 2072.47002432 2452.44798851 2280.22460739 2310.82858794 2198.18749068 2264.50845219 1997.86887941 1910.94490187 2250.59893166 1983.13053387 1400.93894712 2111.53932965 2387.20254237 2529.46017803 2729.55360349 1882.62826907 2077.55339696 2695.05200659 1713.64954457 2793.55666991 2095.29026448 2586.13302411 2271.35618914 2263.1113154 2281.68083189 1950.52810501 2299.58027768 2664.93099015 2716.881623 2329.98399228 1120.80762501 2289.23602686 1958.17033076 1244.3536431 2375.48005384 2137.88598762 1947.66688891 1998.70917941 1852.19570044 2743.04470123 2094.38984302 2312.28590889 2355.7997076 2119.16558865 2557.11282707 1855.30173226 2490.65495161 1715.641326 1944.68070647 2742.3602294 2359.0194073 2361.79100133 1986.93550441 1797.34650894 1581.23601047 2087.0285762 2485.84605129 2402.10309596 2479.59542695 2647.13603577 2560.8030708 2032.44532234 2685.81018453 2403.29845655 2538.67858616 2310.65489157 2593.79417656 2316.2807668 1747.02107711 1865.22009642 2500.36326213 2291.20244228 1260.88765436 2023.49916956 2616.25890288 2248.71135506 2737.96895058 2180.4619852 2792.64223107 2504.54812024 2283.60139529 1603.84255036 1873.41820152 2173.6994908 2110.9526647 2416.63960512 2387.01968225 2051.53105297 2290.91590879 2132.98179032 2611.32385092 2465.15777723 2306.83423509 1946.84426903 1614.71436477 1892.60763785 2133.13166939 2322.10016853 2044.02360664 2127.23823596 2151.95496987 1747.26892224 1609.20920147 2546.61364216 2057.33616662 2223.35937558 2086.74165461 2110.12075334 1796.71620432 1224.65354701 2110.46391734 1553.90971405 1805.45543995 1667.16561926 2361.68056225 2336.4370123 2562.34150671 2423.22824729 2357.60009715 2412.59663549 1462.92365821 1872.83548058 2726.33213198 1931.52142388 2128.82468403 2372.09034556 2375.229147 2067.11763026 1856.22261711 3021.80285374 2232.0980928 1574.75320011 1717.47160119 2415.27333218 1711.36388089 2643.14706477 1969.74934883 2243.57109904 2135.80994988 2133.3950431 2758.93152034 2635.13704717 2081.57082263 1311.47321369 2096.92845319 2140.85851689 2072.35273512 2435.78204349 2330.24263276 2313.18303208 1609.83550235 1939.26773864 2302.1392608 1457.5446972 1252.26118033 2276.9666748 2136.00452422 2085.60037068 2339.79729935 2338.98629039 2250.34949794 1521.40637876 2359.99204957 2250.06150716 2559.16158435 2448.55961835 1670.28046764 2707.29773586 2094.68800983 2442.92385757 2017.15951436 1829.42249942 2614.78922506 1832.58199333 1670.1346517 2281.28690928 1885.58508492 2467.05660293 2213.44241952 2517.55857343 2266.07600576 2177.25561269 1715.75651059 1963.05333428 2598.87906465 2274.63298088 2525.52714101 2353.71082347 2881.76962058 2260.86739395 1760.67486025 2219.17682896 2115.60668596 2380.23178285 2712.71891991 2196.35662984 2288.72040391 2646.4295574 2449.95396088 1826.63672033 2492.53204174 2049.93847185 2461.32267768 2174.30657878 2248.82275508 2119.49180346 2111.28145502 1260.3926815 2225.46898788 2473.45745025 2209.47275479 2662.25345418 2377.09616357 2061.53260728 2190.06780933 2770.85588069 2421.68781226 2128.05872793 2273.52349409 1979.93695527 2129.31080185 1732.99686547 2679.59332355 2437.62209807 1938.26902601 2682.89312263 1515.26788112 2222.60808116 2240.7196025 2184.67738483 2061.52712214 1918.74419936 2130.45969814 2606.73163382 1362.99678762 2406.89185709 1689.70017726 2605.26168712 2658.76115762 2473.07005891 2505.02182291 1615.83174531 2806.8115487 2125.50730828 2268.89323252 1898.53907249 2553.95160113 1782.08644038 1727.82792971 2454.66781362 1947.87476712 1786.21874155 1733.91812537 2493.91763481 2637.94725189 1912.28843275 1638.03834756 2711.95435436 1569.49647616 2102.47622097 1971.4650399 2175.82376973 2109.00033691 2641.1695659 2201.33630742 2709.89069216 2314.4153176 1963.98565383 2062.69911332 1717.7087091 2624.45781975 2328.91802508 2869.41390795 1962.02117129 2143.50004599 1760.7035951 2400.17379382 1895.21464151 2518.53817131 2039.55636361 2585.75052671 2658.83352657 1893.73107936 2341.94214889 2476.84902442 2243.72481415 2190.05880504 2128.60709325 2488.06503607 2352.82340178 2503.01322288 2281.36888894 2390.12910284 2164.60358296 2025.66843386 1839.54249602 2003.52162692 2368.37805455 1633.44557849 2363.00864257 2458.12517126 2615.41530172 2408.91248803 2796.94411379 2685.09264334 2162.683327 1738.79240469 2182.04238863 1915.70236619 2094.8544385 2578.23248098 1871.93442846 1937.94112409 2490.89152622 2494.26577936 2106.36449402 2449.37431705 2499.55864658 2033.56736729 2364.61421826 2385.15557399 2857.70688492 2042.12125412 1583.26503643 2475.32145907 2120.39600642 2218.02177013 2661.24427283 2112.25731652 2171.61200147 2719.86724555 2388.30313603
