conv_1_conv2d_param_0 93.46332587716955 131.01444745513797 92.32810380651325 186.57202387785458 107.96193055029156 98.93179024907965 161.88471870459185 123.44654815941966 127.7099660104431 81.65223556761717 98.72535612746825 87.05967952230297 125.19895521149728 210.22007993804806 127.94124099927049 119.13435107060121 114.89814889810381 147.6454977648478 124.63323953258259 136.31485584973026 112.1072893037015 166.6732321970066 283.65879359575007 306.4205653066296 86.86376295441083 203.20511609560484 74.99764282771692 199.97973009247076 143.22245532033483 93.3151742356824 106.58341203551042 172.79152243087833 129.8199514146932 172.84327274467668 154.36180219449992 98.7062845791758 169.44424110808103 105.65472119525391 170.31353294282383 162.23317451682155 98.82200701524211 216.03693838246036 140.6927588316019 231.99225642302054 169.97682635787197 94.76643025314974 192.4018025954615 184.24631981906612 166.3952199023295 129.48408353901107 137.40075164890723 147.92002332057268 239.89341365259278 75.37975908691816 94.85808290643541 140.1958005737042 177.42670122647803 71.14724433232952 195.60517452937668 178.07621040392513 153.3752371039255 123.51337072982518 147.00352512105832 147.7447946761277
conv_2_dw_conv2d_param_0 74.07165561939597 90.32339263252959 79.14282021117367 42.73474317914883 43.04229618553523 73.7977119626537 37.87305534792518 85.80351147807268 96.6109606656238 104.29331771964894 76.31225676369819 62.46459115323236 37.43892243139756 290.6597291594793 40.07898231180485 67.3731279326052 41.829224984365375 38.300816331431726 53.794051734436984 107.5806396431567 74.0514987050845 41.669615141089174 198.90597209947714 154.52068505534865 75.27491430690338 73.44575950345343 40.088848677028714 77.28761628836584 64.17146037202167 60.20553605568042 79.1956755805237 44.06225036050823 71.56294628465932 36.73305995068299 38.40096797469505 67.2368660513893 236.88921407429206 50.12693748133214 169.90929787887936 62.51471930104371 72.77059507157364 81.22975198142507 74.36411775845511 100.19570866277623 89.17099938680737 110.85474342097528 126.79684953001934 185.79894412244641 45.70995805174179 64.28824799770787 106.70771859015426 38.84231035778205 293.44717402148535 59.61333987351837 75.10835571678014 63.87244040368867 108.70617300427813 75.79049715883424 71.74644578871488 96.06183429354301 44.11142570049321 40.55368048615393 129.88430486991828 40.13658098018182
dconv_23_conv_sep_conv2d_param_0 111.98953681242169 156.82004558491118 115.56356318482608 74.73153205175824 53.33905512528519 199.11127059651153 96.73394780641101 109.39624115917051 97.87163627267056 89.65963827892391 132.8842398844228 139.13601750260125 135.7004833729993 49.975645114743564 58.57230236422796 140.3742277200809 103.08997225525168 153.39177748547814 126.66421617991817 120.11063380927975 102.22862390909525 121.57932891745367 111.61737217238067 67.22990747814427 152.1169973007828 128.31640210735281 119.21077702006743 169.49695837922354 210.11315348548436 104.66310792542991 181.40469420158038 210.90494468500754 118.94731978840426 103.1717572391908 186.3390895937012 140.1537306880556 95.28307632425502 156.13551528155165 119.73114221939858 82.53879342570636 135.78715378506743 132.81295595294395 95.19402025914927 189.48849661470533 103.64626488338747 52.06211056769447 69.41329804527895 170.35872864975505 94.17298021953505 102.68492445088044 102.64005949415517 122.6445198435782 148.87614341591706 114.26191817869615 94.4031649399569 153.1143320891589 147.61570096462242 169.58222998168483 126.41785391819407 157.17189346895105 103.30859138746311 183.11355807983236 92.63882203182537 141.07595679527932 92.97172336425109 230.76238780462313 127.60636773436588 69.93236506822775 92.29790782799294 97.44011509670126 111.1401004707231 153.03023894823647 133.25077642873612 109.40199296177673 101.7554703130613 117.63974927300102 124.74748076071437 152.80208005838116 137.34180195613015 129.80376230564218 157.3731643484348 77.72438455401141 102.76181525808923 136.71979936957777 149.13291736478095 129.59181056674578 173.14426765567254 111.36366013044567 172.1904726192761 134.4773985622379 101.90602635037871 102.46786975679115 164.36127528289887 128.75870756306918 83.93657412805814 125.23019917695203 78.90397725652585 108.51280469638456 153.40934864691016 123.90430083340758 107.89092795336282 157.3670738586804 67.87638233959152 123.15880437999408 62.56727222668694 77.84736773879197 94.38697257279762 127.71640390486017 170.38363125789311 161.3553132931856 61.58533984877112 154.60008654734432 183.89101864200686 143.650018991922 114.40330600770447 175.65561150672275 106.67509798088436 153.348016179833 91.98474267532632 123.89556868400241 151.60956559760436 51.77702107408551 99.37920400235744 138.16472204314317 164.97705891243535 186.06784491522922 158.97389380035767 100.4498014157689
dconv_23_conv_dw_conv2d_param_0 147.32911941194098 187.91767454453893 217.14661546015643 288.8922286231989 228.3208552528158 155.2653185312282 182.12450296708957 219.12615054508328 146.49473419471178 178.7733961959566 152.3228562804911 243.2447674049571 201.19557724222102 292.7857506509575 178.97842177073946 261.63094198028745 170.29352322305274 191.26726519157233 285.7385017153042 179.5574636082691 322.43197628171697 168.56985378525877 214.83369742125728 184.87636843414086 215.14457233392736 189.9510883887254 82.40972598142969 157.5768625474201 174.37696918241943 369.29490866101145 175.91882213428096 180.08202865042588 221.891957989888 166.59781593088468 169.4278974631535 160.60247355856004 185.39068330012344 205.79647855056047 154.5058945847613 266.3549178880033 151.56367775014652 171.34002597715065 417.732293557459 393.25026667093624 145.31463056183813 164.0939868249261 152.90002046602254 199.48749946399658 226.7297020227161 169.72985353266765 176.34695428119485 138.84268045128067 198.45885220956305 171.23856794936748 139.5754652135717 164.16420562354125 204.8292955285497 235.0444557772588 182.6251966641239 181.02264717571708 177.80903182368993 126.99679049020006 165.94948583619535 145.81023403132292 174.2496221549789 165.9967399077255 166.5194225833167 208.23779791465725 157.31674076314226 174.63263754235487 153.313799524266 201.99748449567096 173.40543348948754 176.7783780626552 205.1663233597143 200.63266207392172 163.89876752837296 188.46440950546972 173.23623547666082 189.03237858385924 194.80977847597535 259.8448937864184 158.80919416521263 170.24859335790387 199.49364439529603 135.60128823062396 194.66280296231545 211.67166284591875 210.39195388236513 95.27491301556822 181.66039779474303 141.2739689623877 168.6830751701828 157.4827574381128 197.036484051902 199.5846486175196 163.91605418545115 368.5696079321711 285.73357781157466 186.13102511874587 157.87403013757012 170.9590521128668 466.8685145827771 185.05916299349033 270.26373269403115 157.34329756646252 205.85537126605067 169.01515333238146 159.11693778895258 174.45919466859158 257.4045793522091 152.03179365008918 195.85983254848384 168.3034821661802 123.4632863698728 168.37645913443683 194.33998093180938 184.1195554217891 327.5290900046669 187.76251000186818 214.39761435452445 228.55663514846535 153.8388649791686 168.38223402491516 164.94698186331854 230.45890592757942 164.12184463861914 377.67855605169257
dconv_23_conv_proj_conv2d_param_0 159.76611636864794 70.05137475449051 164.92514934903645 116.74542079564611 173.4579193839515 161.42885753156497 178.9324893207262 167.941741487625 106.91961206970092 153.72969110432518 137.1206168047318 163.4387049943732 138.22590483298117 145.3704282086688 128.94356655727043 162.06991507842002 186.78705253252744 104.84588739348507 128.63695840288042 150.56126472493838 133.67584192407307 151.46679526886464 172.48990839532007 107.85027529652535 132.37127586153983 136.43511008359803 176.03272429130251 57.018137102368804 146.37377747144888 154.60633494406812 146.05901528676034 136.700589593695 130.18688773258532 182.49427491998182 154.3213864445871 126.68043747693902 155.27192632727508 134.76529531201356 134.8256622190426 125.41176052341403 182.29311261448788 125.93113413448627 134.20422726608228 164.5764863570776 58.84898700061923 103.15205788387826 152.09014513511798 153.29868770906103 124.4647414246523 140.78733043394374 85.81295932469146 169.40163028005048 131.4877929377439 155.6987516296364 130.63045523966204 98.48429908852263 141.38058966549295 152.46894775705596 90.29968249630679 65.21727544000179 135.51315695412472 130.94066464462165 162.71205841090966 185.9219646675164
res_3_block0_conv_sep_conv2d_param_0 186.0020446457683 154.21172778567478 164.69704569623886 202.28908025821377 225.82398500601946 172.4623482490515 162.20045927857365 154.5994695876327 185.31627017494665 167.02662940620868 176.9006955538008 252.11746103680582 240.30717902419136 236.85771916276212 175.40444956451967 221.8793649272961 204.75792203289302 238.7051672393131 161.16885622271627 137.4782797942639 150.3144715707776 144.35253048402294 204.5616752981314 152.95815102890194 187.15014258659917 194.5516242779095 185.1458854281756 147.6353902587405 198.50707256754572 169.91723802664058 242.12341973099348 208.49845962895077 163.71944624928616 206.2592611164471 205.01021555305732 170.7196823647589 152.06203272931435 125.33702905960864 121.96402716022557 256.15208032622235 186.01842944940387 188.43049220121028 207.89207246412587 207.27004587709732 126.91262907589515 223.73339653193807 213.75538720738012 207.50336930229332 168.36726536811886 185.44420415285146 146.68332510205568 215.72481344218593 193.23201465827321 225.16871031990726 222.6964989398249 192.24842749164966 244.1009793910749 128.13638717218333 176.5543047649383 170.7404901432062 169.93690189381732 195.64786795704924 147.5241151037734 181.66938131134424 229.46774263203133 213.25066941512026 165.70181369330396 242.97587034635959 201.14537743696985 221.3293026667779 133.92871194872822 125.1832581719034 108.05207011866979 188.3597135441691 142.11352880426503 191.78341312058492 149.15478848988005 135.31609406291395 178.72995266568708 176.39957135041837 194.58339188686418 135.6598066998437 115.2448472073316 164.75979313340292 161.28326439308944 245.72898344255037 153.2789585896278 241.162260274492 177.26300261006025 208.24080997387102 224.41604103787813 206.01139493764808 209.0671535564024 211.66398783603805 204.54979424121154 231.5755438617885 208.4846480928316 198.43306911060122 126.87439014790317 150.52481352414776 188.86244399160063 117.25214412235437 173.26377583945708 166.4804681972635 191.5301132484558 153.0460014365752 132.51246989139446 205.78359901843828 198.4782077975888 164.20824628557708 185.89936843089785 208.00609011721698 150.3761603090991 177.2698751194199 194.81882708393204 226.11227941862353 259.308499206846 137.7062991442032 147.6887772186642 197.84059706137916 136.3133035420112 151.0810792490087 175.7463967437154 193.1944679107469 193.74165795876 154.1688025714066 172.78249873537573 220.21339685503105
res_3_block0_conv_dw_conv2d_param_0 116.33541713986197 125.1619770962556 123.53107243222885 198.53796217568325 148.00871892161453 138.6192538680328 156.28314603543927 111.36460306612112 95.09532542301382 62.985773600246134 141.50336407343568 182.90256594176853 173.94540006953878 128.65170031725376 118.56300491511645 130.74424662928212 158.94491035420728 108.71032161770185 86.97962330797037 155.250170244956 159.56068949300487 153.6806266994381 173.9168334449542 172.85021345602442 97.41419658013058 168.8985805412015 105.8812297153107 108.13531332298962 157.13320286014456 78.63236676620267 81.66514181068631 103.66984559968643 129.52359702848585 180.85201881493606 109.10898432219186 249.5524691061605 129.05752446040646 166.9332219769544 82.19436464761881 120.92189525869784 105.94202507119628 111.53393810400729 108.33930096828307 132.59088173012438 153.54642248436886 179.61819190350704 180.77557484753922 86.730986099068 176.9121081512836 115.90288230510428 117.24087940023385 146.15777309099948 125.09941119436434 109.15052450697738 104.15943448348818 119.85764237967132 207.61418935951016 198.65822720607213 136.83681480409697 90.31041444162037 202.10397619188768 257.03042894771283 92.39085458615769 128.83493541584104 180.45817045254745 137.97790624679857 71.4403449940979 130.39265235613615 181.44275739702513 122.35088660627332 143.51282060608068 150.34823232517456 229.9777321524672 193.14245570549903 99.46151891336272 105.84178273445421 172.44075584940796 146.07363468319352 99.09440221332332 123.25822041976508 120.91932871502759 284.6106644190324 73.62537523534168 118.23650247859186 250.8286587741088 126.54878400212483 188.04389942933918 155.77426653732186 156.4505942674214 155.47391614970488 330.8186151555675 120.29914360728317 180.24748589481183 113.91784744624726 115.36691256398034 105.12650034359541 198.4191545657919 221.85757883901374 109.68807497005685 139.2901442142532 128.45021232472058 255.43538006103122 118.32927104235405 164.181080235353 182.95249174239075 161.70015370840693 108.6517379381229 96.20847686822327 113.7967490556132 154.43340622154483 116.06161231409608 184.81591256126828 134.6085124101699 201.75300571491337 102.79752148093598 119.64742284597946 165.39128088550785 95.55744358710447 114.6861709897989 83.41834610816046 164.98753417516704 82.90191674940492 237.73063182356373 177.36908441301142 164.4636943650572 101.49189501043591 209.2663072931941 155.6595319094502
res_3_block0_conv_proj_conv2d_param_0 150.8236759965839 95.42358827078488 193.24540396212194 167.90178811279102 160.79314255200669 123.73306722703228 157.38768346667578 166.29623508395878 144.9830209724278 187.23705931056688 116.51267478215526 137.5058812353408 241.44151856930893 192.0887851933323 175.27972171847154 201.5884474566932 145.6973881153494 144.40096598648122 196.4688848979074 154.84634321148326 163.52998613756188 156.22083475357954 191.7613544482884 173.9308458203663 219.49891023503423 162.1036012879692 191.5465221919825 80.82417390751515 211.98764074098247 152.07576200739686 173.74949845446835 175.82414436895314 220.40143745120838 199.7869300904444 133.65129906136386 149.68902979503125 194.32858404596965 152.96188448587674 175.0369371429773 148.41346932972857 153.6878541087087 155.18843112231335 169.07439226997417 175.28074548427423 169.1434874952717 135.2607652979832 160.1343082905686 136.98342992177882 154.64143406834788 176.0097634031811 176.52921853392957 153.8272143034692 162.33695265347774 155.49852661084296 140.44864013010329 147.8697631294136 168.9950185999447 119.57773713607386 134.28115099654627 163.10355823725598 192.4718792450594 165.3828209937982 208.49138022305684 147.04509958346895
res_3_block1_conv_sep_conv2d_param_0 171.51796376986766 196.69487074461804 140.73604537992244 228.11921133323057 219.728255532867 157.04872468594772 208.32956235182218 165.5072519020227 193.02405296925667 226.63063391929307 166.38300601107258 196.71548197040238 231.36163102562375 142.85083138436767 180.51164879911445 205.5008548123049 158.5176735475742 196.85049690118692 175.79263676361015 162.50667501760478 225.22947629415916 160.44917138159295 130.12372018727206 158.9826359729455 188.99604366401257 170.2111789750725 166.49925354140976 249.65194263236657 166.25146958926717 219.79947440984583 163.8511377649625 186.71442681157444 151.07836899952414 200.39518673037435 177.2101935100861 152.46958056072026 182.7586577439105 191.51608264639606 153.16509439353612 150.49829724902628 187.96380964361614 193.651432472776 168.56944036016645 126.20114507632816 150.8794261968012 156.21894487900786 130.90260610101248 143.30463182550395 185.33446886269417 185.8535601879098 174.10528782645972 160.63241591117816 155.00996951099074 146.33244100139245 199.6332306296996 136.03848421139193 219.12473082561553 157.22236593009657 156.2851635605448 176.7838196042185 131.10676071227053 223.74697629561942 157.19825061679856 203.6615216328659 200.52984744173457 238.71591815946292 197.19418445962367 184.29408081063895 161.38790849415773 228.89635399836368 239.3627503614808 150.74592952905536 170.80219086596216 157.9064977286419 198.22660264240557 170.86858123049547 123.5890968145118 144.31078327527936 176.97214767308117 193.09496868911143 151.21009453316873 189.7142570185471 125.80707899600267 197.15241889196918 201.27648524915247 148.09708861895348 165.80340772558907 182.96231049607306 240.41051118926063 221.76733806932376 153.7714732008893 190.96915293287384 184.12924525644158 135.21350412477045 124.85562462724201 222.3339655402698 193.9201199321377 194.4639618487811 193.68044196130876 163.68133804845604 166.76056676663765 186.10589093635517 177.99183447068327 187.20175661789202 204.62147465498862 182.1748459422935 234.52080742627535 161.56135969241637 184.49367924675337 152.8724524413995 166.13328781906802 182.25960268775432 184.09970160679578 227.88528314931014 222.0538772134454 158.5341503642063 230.1518457513095 153.15630874211732 210.49982982829007 171.41721893517783 188.56389842802238 177.64895215615584 204.48395304378536 235.17720654427967 157.61882679335906 203.10787686706735 120.3024853931757 185.75818937269682
res_3_block1_conv_dw_conv2d_param_0 134.1995275853297 76.30435328504522 94.3310529610573 129.73139964091538 238.92578162538788 132.14119262725444 151.8727998753488 123.46314328901298 102.7244796705267 179.99920860398183 139.27495742900263 195.32329515005299 146.41100227913148 242.6885200714885 135.71973294116327 167.71763196044373 158.74005108095935 111.41312176669189 98.3606287601234 120.22401604441555 182.01422879359535 143.52173343715563 149.67431916197808 108.99725346371017 141.2964064984612 133.88786204344925 211.83326156919586 147.15898661656357 109.36927641665304 116.48989574713387 302.9677916932446 152.07554492442353 270.9556249350653 228.33252625435696 98.7801878333885 182.50143400280874 145.9518724006233 188.81757346002308 182.54017782257048 96.86104393951365 130.61993257709645 111.06015671699517 90.78744876151158 85.0475143026041 120.65285141799374 184.84021844513646 186.35768532681024 183.58879748968258 153.00661229001238 245.63280916762005 161.02487538501848 133.73071233560577 247.01986818845378 97.71633446943268 71.88543977919797 196.63328073060575 158.74297223433095 111.83932390401257 124.46564298311941 127.97313863520637 88.69591268222423 187.33835286413512 170.99691954477575 172.4619853069016 192.63336088372944 102.67031801248366 190.24091532505724 126.60001941745034 152.91543788176264 176.87740491156032 152.495551862681 154.49657356101525 116.5714088132249 107.26032632371992 243.39620377547988 116.02179746065116 154.10658281997777 264.71230864415327 198.0503280736027 112.56542912514837 143.7590549646821 196.5327466731258 208.32750506297765 82.37490268099788 159.75888096091074 129.34134344378498 172.25351838491733 147.35208487321688 181.93276030706556 159.59605414609553 109.83894762780139 131.5878281719012 131.16621923856107 165.32041913220192 111.11005593292637 180.6604632209492 195.62379785191817 103.8749187314184 202.56362733728935 141.43039295254354 187.68092383799504 199.2437635870988 106.18679530046481 148.00116250057653 115.3228663548028 186.98813563114996 162.05695972721395 141.715622625346 197.72566817933878 174.0502199575785 206.06917508650827 118.43506062976334 135.83660079925767 152.5556798985247 247.1342146875015 192.88415868831564 183.9068272668086 80.68249574171743 170.03651077546374 124.42414121206862 109.33738736209968 110.89825871470207 111.99794286466398 174.046992627837 199.92383194288465 105.16969313464661 126.57571238796268 102.31465779939109
res_3_block1_conv_proj_conv2d_param_0 144.04609028303312 112.39761002688947 194.45844231107964 185.70505364268683 131.15841965015213 120.0788736661575 157.06406391405238 171.51204082210904 181.82845914436004 221.96130319966247 193.69424564286987 188.5119142496776 189.1551016549135 174.14666853451286 183.54037363494035 155.12113943766337 187.7654883368436 92.85522986426452 194.56365139726634 176.31579887233366 193.1062388343658 201.18814920680722 201.07064648259546 153.31534396514147 217.06892251130472 182.0029102268892 184.43040822124172 136.6008732889842 185.36563576645548 161.86901374382063 144.87903633123082 224.67824005142478 186.11091397853218 126.78501914592604 183.64807319215967 163.51663318373068 156.97683812161466 201.62263117543736 151.3814040367921 134.6352031417103 207.9157668020989 172.99855533204914 182.53636212390916 194.0393067971927 148.71976463442527 115.27961468471848 178.8684096776861 177.91847221876617 191.71702806841472 166.2324677625686 239.11379378413747 183.0548942229074 160.43162973030746 126.74013206107016 161.9114991848597 174.8088780359178 198.2145240842432 133.13254055134837 156.58785403119356 129.73599696335754 140.2458802279971 160.44468895571282 197.7405132959607 185.5440028896952
res_3_block2_conv_sep_conv2d_param_0 210.72268673532037 186.3847299170338 203.17847258729512 198.3554091460121 138.57116707371188 195.73670915286598 156.41411802913373 147.8569776909219 193.27820157385148 179.2504257258371 139.99069745011658 144.1368199090724 129.99375394923396 191.93191468509372 200.74944524843224 176.79071368238337 218.18862839978524 217.64644199653515 161.90521229564058 146.96801573981517 133.954712668103 123.36145381616322 111.43341059262187 237.19160642364628 163.71454023837234 216.59631131709514 150.1090206534369 184.78275079432407 203.87656448501446 125.28567611607227 190.48429208885997 159.30733347603933 234.94726432871303 219.87364367203458 146.23528374205813 182.08363242547023 190.89508641275825 183.2560242430122 158.92256331840827 212.318145229677 209.33310527192245 192.7652352335825 202.3809040843548 214.73161370517087 192.24516647919202 182.58658885972375 161.2347998237448 199.79545403185296 191.4792513396857 170.33381970299155 87.42393385753343 178.01751663013783 137.83282023263513 148.78422365482555 181.6757322643087 228.86340847446195 196.1676605601722 109.68709245193232 230.64014022601086 156.95446293846862 169.1941502373134 206.40204093968782 171.91839859386715 205.26439712447672 201.4462669444758 219.60449172128506 177.75066229795283 174.10170280380765 190.13355818170152 109.03344129011855 121.24921723444271 185.67962983748572 142.93236133986125 153.5609523503396 162.88758458936888 201.12099883029808 205.97506981254847 140.99632505407865 199.73615745989844 153.68447310410826 232.62980855892127 142.8490213024544 203.64748704423775 169.5438397254969 175.56885488615043 175.20477418617435 192.37329642435216 147.70540392734222 215.9860663204061 213.7325944181725 176.16942110904628 221.98646310693428 187.1789633512655 94.14371199489867 217.07708296635187 148.35154147418112 163.97955814388044 149.22081658774124 180.92067704733455 152.50200241030737 160.86660018711717 158.48852611099326 150.38676335094038 179.22501979443396 165.18831558431964 192.14764744065732 193.6067206689702 138.3634634282774 246.25711374866873 160.40461197814642 189.5194918434462 227.97957252701974 148.7074441296645 183.5462552481778 204.98149928982548 184.86736971063098 143.83459510282046 183.8373277085683 126.38175657240092 161.09704678483942 203.09488640322587 135.18027113754803 138.52998537400316 163.2763770976357 170.00517123100224 195.232020190377 208.439207387532 207.02561933090905
res_3_block2_conv_dw_conv2d_param_0 139.5585250633438 138.32561987634543 136.20324963978834 94.10042141245158 289.5728513666195 140.23170258885224 119.44446087584866 94.95250259049716 138.9155952903537 198.1394671852666 171.57293277062112 163.79644622669693 144.5575689434805 183.1944339049426 130.26702256289917 213.01259726724467 92.35450046842449 241.97243587159272 156.5415488096354 244.41865564753712 102.66730026242313 112.06786557408849 181.09813046301554 128.50238703002492 228.57629932580548 148.5804347207586 139.98882116391744 110.38826960705687 146.78868307931924 127.312780032598 124.06228260635396 139.75165588519818 149.49605534936694 108.38165732333161 255.79465610837104 100.99849329872019 177.23498716387363 177.6760022378086 142.4634686978476 103.71357596730007 114.77382089606587 127.78239719581245 140.75428611593 252.0847992390273 178.8876918301708 164.94052087977198 195.946577842479 137.4662791531891 244.65456950479043 183.58376730468015 166.22918665826592 123.65921718908422 145.462536426967 135.07030880591475 99.95085887020736 168.61492928078397 111.31089283531345 137.2487068276114 134.68681992274193 135.30766426349754 101.44068630008795 145.63626231508533 159.9530743673326 186.39333888362214 195.56542551023819 252.66544004470103 101.52894941036479 234.81078784087796 132.4789943987426 99.4740655315817 161.7479652893118 230.42027614446303 117.55778653706714 174.24963640515097 105.41983218768918 111.99601195111107 147.23531458799252 146.2391077348017 113.36282442674987 146.6722483685713 146.3134593830476 166.43676054909983 108.08684338468106 61.38934887784055 119.80721774034384 126.46374394466214 177.35344970021805 168.96285587996417 174.13746005258514 126.66769504964857 106.74851974363199 101.24660399378087 104.11341452855388 216.52281805421092 97.9246684119973 193.5847506519281 107.33856830822091 145.21622662904656 146.3199300644075 282.70908603720267 146.23035600433468 101.06326141690768 120.1144120285649 172.22322170179018 170.7183555450007 173.23706648992047 92.36829708696752 151.59578014743744 188.0935667992331 102.53986597622307 266.2981595524475 124.07496861012346 92.40597651966324 104.68765772255728 141.5867779732386 87.58252458711543 168.38685156104106 151.3955485423524 99.40399917592015 115.8252099736691 147.3772083602542 109.45891447620212 185.1287371116442 181.6257421384259 244.1732344679384 128.43242761027858 98.09316847850206 106.65387805084131
res_3_block2_conv_proj_conv2d_param_0 160.13858082036072 158.12499161399066 120.93408439717206 169.96595203061116 150.89323126890363 132.65923477513093 157.92635926548417 178.25394086675308 252.58627578800647 177.60085713597456 188.427975973759 200.6060277847972 208.294329253617 177.9111630881083 183.59113867607468 175.43110926681348 199.72179747762826 129.5601645440134 137.39275115015383 172.15200522910035 159.54550387720536 155.6699491420279 208.48595368410506 222.39764457734242 148.64574777264016 182.68015525237084 162.39173811376014 112.12436226073858 188.11711484467958 147.5885025807303 177.8127711528086 169.99347952074223 204.33060586474156 161.23489743147158 180.68129813019547 175.26699053164626 104.57118200268006 222.16570736108977 175.64160943514167 195.8938838853932 175.88058745441208 212.5167607664145 195.1943717645007 153.3291239613327 153.25465982452044 192.31348004484022 181.59140922758047 217.16292653653238 181.86957224631075 193.40253384057587 137.73125892209114 165.11582343703043 146.3183927233687 183.41652046990023 184.93922351452554 211.5620576356177 183.98926342516563 118.3578111309 196.62050649629165 177.5895331260531 147.43918226478135 192.92998727989732 163.64681702640644 143.964316254331
res_3_block3_conv_sep_conv2d_param_0 246.1717595965046 271.9568995500925 179.67171891187755 152.56229938980994 221.40729196433304 144.38367574236207 222.32647219237114 116.46969763558536 156.6331273175671 179.59817669669485 203.83402658568562 131.01990153521632 239.81100964103302 165.4189645162758 172.32254717302345 215.649574901287 138.14859731001692 195.5407475971834 184.6331020234538 218.05469761798452 219.6333084188872 195.33194384995926 202.20520706018317 228.92635742702464 206.26950447161158 149.46050595037886 104.39093348347579 187.67398079472164 179.6739006548924 139.72619676303376 192.00703035399675 177.60355142681314 166.58976617925995 219.97602044582513 198.66711819702138 142.98668960137522 130.0006859075887 170.38698303996105 193.59769635155718 136.05406796731674 101.95745237964444 185.32360402570325 155.62143445616292 186.51269082544505 158.61368115731435 125.53953390429187 226.5542697753784 177.964524636866 236.29585566910384 116.32741435845136 201.49454007901264 161.25396980843175 152.65283431403546 229.32706555987568 221.73064392124573 192.9812908251064 158.75317937542619 185.97324426800978 133.03164716370043 202.60396051654678 136.11583002456874 157.88935551667018 157.25861661251776 140.41794771488554 133.30971876658194 184.92846916888848 176.21224070550844 139.85091400668279 120.51667839005091 165.18492189576241 174.13290598559524 158.80795132994828 149.44803096658782 214.28047073778555 152.17907695779894 193.48927684702153 146.02827403695443 178.27986281185494 104.84080070634352 121.293074196048 150.97382549598476 176.2753060030632 225.76251512266285 170.92601413562775 214.97591019932355 181.0389662958581 137.55396844938403 149.14433757210801 160.64436933270775 156.76139974624846 140.96679175912755 192.71504001264805 209.2110959802468 271.7712144043538 220.54977270720588 145.12916483924712 234.46498711145225 179.9234381511354 131.3411378347942 214.92911375371702 186.7542927632689 165.79903400002132 139.38068716885167 184.85708881893447 170.16679538085637 211.9549968784307 98.3617366936227 120.89613868873562 162.92746687131117 147.83154678357906 116.93376158975434 174.46446579701902 180.07930429608746 221.78755965720723 169.23231506995435 224.25252439884727 148.29524884531614 122.25890487061436 186.96749432460993 199.75553828456572 158.00825745827945 250.27179338397406 146.31958843027374 221.2922936570095 185.94276519715572 154.9993810809812 196.9515930550717 180.90510113996953
res_3_block3_conv_dw_conv2d_param_0 197.71554028134594 163.86875465198355 104.16374234699215 103.84708405851914 151.06052448832807 128.2948072943389 147.22847784165236 264.48295606321653 132.28201096111496 133.69978136352282 95.24605441046862 181.99565029402626 144.35525906971998 168.187198330368 135.9624929193727 104.81213670408908 121.43625433748451 243.9340584359234 103.5935748548469 179.69085642206704 127.08724873846589 117.4145680030921 202.37167758652345 221.56269830046003 112.59288644655662 184.44865686688928 117.01777377474133 171.15853842118835 139.310234462464 68.11653387600482 186.65457802982294 117.28438893184833 98.0447176801973 164.79974358545985 199.38581755097087 137.16002877731927 116.79728269395872 159.16611103989607 176.49954846006742 127.92928828553237 104.17141183689134 180.34219563823228 173.72895657596402 138.192940422594 90.56539173887323 136.61501821987585 147.9597033065182 174.89036302589045 103.16957915150867 119.08052651686795 121.34620885221538 85.14512838825198 105.68470766191233 108.62297922461158 144.88886845854947 111.46520467224401 175.2471837327151 88.81439053053964 77.0306995351202 210.67224502649586 152.15300689267394 179.374815117883 112.32917034295325 141.272236088022 100.69625777029943 182.549092166494 153.8875081161386 115.86202960386366 125.54534797174198 117.02251678441746 163.578860979577 90.4297857932082 97.65329541180766 210.26378981697525 101.9329958699728 135.42436549455803 212.56692336170977 117.27983124349052 166.80957679958 90.60389510101749 124.828355348762 108.16481370193833 143.98356888015422 125.7019086786384 114.55414620026221 143.76183875876833 92.1183327250351 112.20319886894546 130.05644604849826 325.8248119272288 124.93299139233227 132.37020679746016 121.41433235253962 180.2280771945982 147.65471644413424 141.52230246466718 130.22921127677537 144.0951876126258 115.12809086678811 149.57854471543973 207.7775313661992 190.06627563460643 155.23867807309654 112.14670536427752 142.96397106778136 135.04680051219643 114.51650350519303 116.91967077118022 92.96083632476362 137.3019669492925 102.82694991294942 155.43478692542575 215.04818328384155 202.94914323373294 152.51685930031144 130.7066950494475 110.8120114511467 144.86724544946412 106.8982089499223 176.39977580647164 109.2994051877331 190.78564030563933 95.99630919701967 111.91435056256921 183.41734149904036 170.15592391105568 153.81162359600486 179.65569078572378
res_3_block3_conv_proj_conv2d_param_0 180.55596290050963 90.18916649664803 175.52200954671434 128.29198003234416 154.86661298283738 139.6395696463932 176.0785912895778 215.73752577233992 224.59082756837498 179.51403144733942 145.7921557666142 122.43599909760682 173.52855300411085 228.37471819007123 189.55432511631264 138.13711521146513 162.10008651600972 243.38758490610866 132.92794593410594 159.6204444502378 127.09278252126697 176.44717858856762 209.41054475767095 168.35187371190307 156.413256862577 136.85928021883544 194.18553662514813 95.32369210043804 98.68310679251924 156.4513984063549 112.7201046626845 182.75983344348182 184.32673252937005 163.1751560965116 198.50087730657472 115.78360665144844 158.96463075620218 161.9573553364206 170.34508162140654 155.18344664402517 182.70421591256567 169.2126123411666 167.32931703347936 173.04989567251494 223.15499511368805 158.46339623359964 137.21290197939655 167.93317750413132 183.13433305852237 175.11513758828877 133.8688005524875 195.8386982239275 179.7974676708134 163.7963329012235 175.03585870696645 144.85239383715327 187.44605516406295 149.63963076407913 165.11893277710575 127.4756588456066 167.97849579010438 156.4312514733985 129.096942259057 188.65016262361675
dconv_34_conv_sep_conv2d_param_0 144.11308138634377 149.88379992236764 96.69984498662717 133.14789826673916 168.07067734400383 155.47475565902835 129.52603002123098 154.03723023865976 92.95673203735569 110.50477466107805 121.90157600234522 169.64872874510561 182.33356235849766 130.95789520007295 166.4070586932411 152.90209422922817 140.02464484141157 74.80423873725125 178.529010855741 184.3642931216414 83.8105647014269 109.2586816469967 140.03456537133826 150.7659400341552 147.8992211488237 165.14041985393095 90.1296290859918 109.23158307342614 150.51113957081108 101.50200950220196 94.02272971779145 179.417484962979 168.7130607839484 161.80588030881464 179.23281420156889 176.1774327204667 139.28580089257173 159.33752164832288 155.90056519729225 161.08971468676057 238.27946707510404 134.9169077849803 149.34272660992403 95.51401653987388 115.38584265960992 131.71213588878132 150.60987960223054 150.2411686777266 117.21953011103005 117.83152338495482 76.82720820856957 130.13958382577582 118.86690740113441 67.9741676611106 176.57948592958206 124.99487761309607 171.38061253322817 141.95210112059675 145.55045613231655 164.46038116069454 131.6747424294822 50.283496207285474 225.82257290484935 67.56725729833262 175.62446826302264 149.76521591584665 173.31352563726102 111.79406993197199 155.76909631460657 85.51983888106176 190.59608636489358 184.93208056338193 102.34506885299321 182.40344400495698 204.5495389609199 137.26064298238964 156.6261383514706 183.71842767782573 104.39109714726601 136.73328452354207 180.61498015631665 172.76596708026477 185.05440550094642 151.69878935376312 161.74023004891666 139.190289019365 163.0371628267821 130.64497673512278 149.5101854251902 250.72570817413705 104.99833497299825 138.45786155217377 183.32521107674305 122.22612481884407 112.76327087966517 147.22811160530188 186.42918551594758 220.71801476000005 183.27419886055006 96.66113530921217 125.55610467648084 150.4660310207522 169.80220553328627 187.50220501645865 164.9307665197515 154.99877220566944 55.56155864160991 155.5045187183611 94.79092504755103 174.1934518437128 158.54930922952576 65.68189331963492 143.82612879578465 148.449763454408 161.79597715681885 142.25492991927874 175.51560442442639 168.50165274576912 179.41452385110466 47.93950591251372 130.92626238202493 78.56893650202136 113.9695922963699 136.07068067257427 127.91207753632489 164.42372901890639 228.6054094998581 160.09431402795238 221.7534897942914 118.09288312259542 53.972104710683844 158.44956170129413 122.18950826140114 102.6696451872671 125.21689319883974 132.25086809736595 194.67640907669735 170.64015066453916 156.40423240745812 161.44337625747698 166.08872651715012 103.2022001420134 185.6991623386816 135.3701264249097 190.6834865932203 138.79379663236338 137.42530827724573 120.2060015600161 118.55374284726427 127.35429041364647 67.01899732937635 150.04250020034243 147.96678281796042 113.94334839596357 122.38982146201027 141.53307564254806 185.69958313371436 67.15482539703551 212.31019055945416 159.27645426132563 272.6525275594864 180.4726300238399 85.86244416157291 74.95419572670559 81.1005198075822 90.80122224800937 143.56030724117298 151.22792073344363 141.33843398124696 169.9071435981754 148.4897488930031 184.8778282027078 154.14815744059413 121.15984840592856 170.16944551219873 113.37146204102707 146.8061799103718 74.44707593019781 82.75590797797636 219.1004857585114 142.5276321293117 158.63033146916393 136.9868558078664 133.2093812331324 166.76208076372686 141.91762874455063 158.75384176133605 121.25453028594062 146.50762762875092 141.83879101817737 171.89662321409816 168.2086548369138 136.5419078000459 186.45161705839445 149.88780656842445 141.14099848459526 137.99224844306653 185.99912199111952 163.74479865721526 108.5104173658515 143.1776933496121 218.5703765867898 172.3341154276784 131.2679248068152 194.77255977649352 161.0875224946891 134.87169643040824 94.13307275805846 134.96857839375397 110.9795301799137 132.90823651818525 132.29183389878136 133.97210544070225 145.26910613305537 157.77842487445963 180.45360073167035 183.46388376207028 123.96834537463963 151.43824547946795 160.53364728226404 87.56157717374751 146.30636640546248 184.9740312245501 85.40590155523489 185.02282902325314 204.28654641917646 189.6755488774708 151.1968429780075 115.69217189827329 102.66493565765494 148.42657866379423 169.34291554736055 152.74449508193172 151.78581502546092 140.7544627822595 76.78695103640268 142.77948760766645 163.54009015055973 110.79883875554565 111.09682387199548 133.35716893855724 160.14932934711254 139.30669138224616 205.21194900680973 144.91083300931902 172.9804375278818 172.79354028055286 148.14428975258582 120.33012337259463 140.05117021940188 104.61232733764665 212.71107639645942 120.56671970220727 155.3596913435813 184.94262664261186 149.51376295049332
dconv_34_conv_dw_conv2d_param_0 180.67512375534488 196.67640602852396 175.75893670907377 179.68508291952003 157.24948274323688 192.41874353567718 168.1070504232842 199.72398784993422 182.74038148000824 203.12691060698316 214.8071658091175 198.56904645301321 231.51221142552288 171.42426625574956 176.2666147142098 222.65463378768382 183.5915183335486 227.44238643526472 247.30224463221577 205.71332664391312 173.6059628298428 180.97281593853788 185.9346845634187 172.08244587479476 178.01992610695652 205.07771860942577 268.38308114737674 134.73628659138018 203.03715605903088 235.92004187133512 187.90580873862115 181.32750463657294 212.8948346455497 185.01140629604757 206.5091054859322 266.72732580468613 234.0850426953701 203.07177484309804 182.98807991746452 130.76269346155365 228.94898816607977 219.71513652985394 204.46154451436908 194.213785828425 210.27526485652385 186.2959963137863 194.8865758430463 192.9820249293585 262.3230076971201 213.29485875552382 206.7774741625984 208.69918826280954 217.44849016274858 192.61476277819312 186.69505640308137 191.44215898159942 183.91720910728822 208.47683528677243 186.91241845798203 161.14431951539018 156.34461221744303 125.73607530427483 183.65324936927837 198.72698639413971 209.23607821263613 181.48899847114274 156.20235030787686 166.3354538886367 213.10132979148997 222.75130347329778 217.9343048753333 157.00324557379219 182.00584856564586 175.67874080929718 142.56498654110834 217.47228219155713 220.18718096361647 229.8078474823406 216.73842079982717 227.33471438728748 163.00725264181193 236.3507160272523 146.31248481137888 203.15144867607287 159.33923749969995 164.79506576894218 253.2718810221279 213.83699221269185 184.16024684848983 254.4458394254201 193.93222795846785 198.1265702020286 153.07035503781128 239.06204217406562 152.7157900138782 198.14427634733423 194.48460521213883 185.68299554299412 224.05957798437004 220.45648664378336 182.2194662517431 171.15625610495903 209.2390370300029 203.10148790669504 173.93771796231522 208.9837568510214 157.3470390089803 191.50597844321666 155.7768062217538 195.99888547645008 205.41701079479668 156.15400679990125 197.7638038848353 191.04994048481007 210.91304493294496 137.4180671030512 193.03727355764258 203.91154818995193 236.3802929966323 128.5436144748107 221.47481512464586 141.30046381586365 163.3719738666971 193.13014849775527 178.7609773188099 191.54023721719764 207.01260560822047 191.32701654672434 190.7125353976685 278.69590695480025 116.95315806056055 191.46324962663567 183.98816717960472 170.44204743901338 192.93369084558796 214.84125742305207 188.37040439088167 220.03178890560667 203.75071858081986 184.18751714299373 194.06737206046702 197.75526887145446 180.1706379147656 178.5495964063933 191.397223540449 188.41431286550096 213.82815080704904 187.60269554684652 182.65486393080963 155.53840324072522 125.64188391378329 175.67244011391014 201.4504380188879 190.81296016125424 191.22345865984235 178.83599679847015 158.65330519027134 196.22129702373886 215.4583962387976 168.90332016456352 170.2130010322033 225.06726878783678 184.22306183562807 205.09682722220688 174.65843317259154 172.68370611327003 230.1245275910991 218.49414865678852 169.86750916402428 206.98766888795393 171.62495095610524 194.79285912213751 177.99238461877107 186.83279790893806 179.71922925844174 228.4654934725031 216.5762767614265 204.23487083024526 143.4576475683036 217.29421253853272 193.10996667193237 229.76512439705303 206.952948480556 193.65139727236556 191.57940019203738 200.36997211078835 201.04694994005504 143.37333706743027 185.76928338976347 189.61004112372822 160.57238505453694 136.7800600990781 254.7833686643351 156.87246359483132 167.80129400419523 197.491487694891 168.28124388899332 219.6077736815096 211.5150767197721 235.81301645849695 182.7600842613481 209.66363017600298 192.14759545690038 190.60768053508468 195.86264120070874 172.93624039355356 158.4497384475453 189.27104016145773 151.1535528745691 199.13127474939506 189.50769257314772 146.0994560799564 185.00904481109242 175.70084751262462 182.67265325676658 213.8791706287278 200.30212391808084 174.86643624230751 197.05138987073644 174.65459627015568 166.14740841782404 230.02331555148103 218.68776977944697 201.04655156714782 211.3561013700758 191.3981347653671 235.03812940791684 193.74829964943186 170.1509235013915 180.3409287271644 228.28291439271914 220.11591531301522 260.6966173838127 210.92576023672873 187.04673713854558 161.36249850524115 214.54972756687326 233.37660124868756 190.72332428130545 198.721277811172 183.21588892371418 198.0615765419652 163.52797803526644 192.770188176321 196.13441670415457 202.2549005871801 200.4392238819505 197.09462585527356 210.23300222911234 159.27388252594295 195.37213543474272 214.4303028644026 208.34420897837919 198.00635900794717 218.99446538819728 188.10429388004744
dconv_34_conv_proj_conv2d_param_0 175.04589586513546 148.5770260459824 153.6543720944253 120.84367151310316 155.97845692699428 177.41926993777062 144.63662132261973 98.32887255929896 152.97121892572846 174.08481819437813 186.9584549330314 158.2720485289888 172.9992295561394 132.0870945216784 178.254239120141 146.53507402381885 164.7488372240473 180.85492010984865 172.39428144966428 143.75351679600982 145.6819275437836 179.42451044085482 205.0242610508003 149.51330132470477 190.6493118186379 166.12482956409576 158.26239688036767 154.38695672903233 135.96606748483444 185.31470676973706 149.62379507634077 164.33094070715077 96.95863041148978 137.52897523504816 155.7290785590788 152.3396932538322 145.64989117476566 137.55810674598231 131.3064631339437 167.42985164582802 149.4704350097748 176.11318554538883 170.42943673109215 159.89753380917972 179.97237385522095 146.99057468125866 89.8758905730274 129.36318207574612 165.22647536320713 130.9472311968499 173.8783287884258 161.51292376168809 181.0925740029973 135.59075198390047 115.8879925020853 181.19355158018124 144.1146604620962 148.20058119881645 178.90066907657493 196.49359832299902 153.11934958643815 156.96025559096017 141.7166971589104 154.49694324366322 152.78568851231776 177.05154289147305 172.90720444780874 154.60434931262333 187.45929782377365 151.43381110851462 136.3270836892338 169.77645797991565 137.21560591451765 159.6309680595932 174.21085606630834 129.88934853254193 170.66568242037442 107.0451240030646 203.20451532860486 179.2169698032051 164.62479320555266 133.21212956330035 144.67354726829097 166.93773422295487 148.87338687504825 134.18050400380267 161.7496843321 167.15160637096184 197.67498404512472 137.48790488217062 174.60729310016046 154.40882960460604 143.10452341105565 164.0324904525095 139.82886893375084 145.8238555527602 69.58456672724068 151.008193482677 168.9853014876007 129.4791499820035 158.71850646090456 163.35233459658144 183.46807009084256 176.8112670932463 124.59145108869104 148.9199392971534 138.8618182768504 152.359584409329 143.22776008713427 100.9262159447877 173.00893615618452 172.7189392185511 124.70857904874103 189.2721666378855 170.8045048259522 147.833710993773 168.2235687400861 144.961981322977 134.67417802511125 176.718352668454 196.87941770364466 200.7850289284301 123.16478446950342 162.9151339115999 147.92901955646698 148.27399018876883 138.6042220330544 172.8664667164703
res_4_block0_conv_sep_conv2d_param_0 190.3020836170916 271.58057287688507 218.53204304741075 225.6350640511702 200.00781292534504 223.74779865258174 327.7121291342155 263.9494296866212 217.92164438040103 233.13223121325555 337.6290330618592 288.0382604282763 269.22906697253416 234.50033947252714 219.37395903988482 317.7827893256506 327.30285976304526 236.22850113152523 300.84151670994714 273.91286789455074 275.44197101423794 317.1102280278637 244.99402631237328 140.27490902435596 302.3042105882202 271.5421721294605 290.8220488226602 195.7666705745767 241.52537567414814 197.69451719706078 211.5738218823291 285.5298349434289 286.61178888691603 255.23045142724146 244.22613114285838 273.586798125409 260.41794613641315 256.72941925069625 303.6531805746919 272.45606657590366 311.8056248206889 269.5568975938005 277.6470958002078 278.92664710812966 224.906861586062 246.56194058832162 233.2689336246951 270.6739766755119 269.1565582095882 280.8044359244088 242.5255673785828 271.332483609884 259.242953971283 284.5402172084815 266.91433850679 232.23773433792445 207.74347721380636 328.8962900835837 253.11873510153586 282.0716058857167 232.79041212748402 248.11040769190012 300.2374586914057 254.04095916715545 246.4927419808253 226.11998214562774 319.8928927301343 248.98463514576898 207.2439384224647 262.8811701612821 243.62399076776828 342.68669319919263 315.6403151179137 213.436173991578 223.73934041249316 195.41212850186474 230.16136761694315 215.59035547966863 244.5383518460943 252.34624116325972 350.3182905071461 278.47226293546936 290.4984619252449 230.05314322775882 256.32154633111946 151.31816794710647 264.22092011523404 312.4668472605303 337.52850924751186 322.2646318999429 215.0540870448143 210.40955152001607 218.71277670054394 256.2821604303199 365.6296521029004 242.34858144557472 271.5688040308861 254.13848149763652 247.70699165899475 207.96130430297157 230.49256177748853 233.58905946565088 274.18090609264755 273.0984813965599 274.731399775272 235.36313294591193 317.05511373519914 210.40541674554254 294.38964445722013 213.63515272756732 284.1938482427838 360.0792709409622 238.4689184397798 336.07842005921697 292.56998233078724 265.31666900142636 263.14409649172313 296.1762879535972 210.23325114919007 301.6885889931218 266.31030812885797 237.47836035546638 300.1091559073415 230.20018420712876 285.12985861445 221.35850484401425 238.88627020806712 259.1508522932172 237.66333178289904 209.6738637058068 284.37484995191255 311.1288849742155 248.17754022753945 222.44066712998327 248.4789711296692 283.5930253389543 316.3359760899599 307.4678785639026 288.9568923645945 245.84080451209454 276.5225069524624 190.54883766185915 229.61027493988198 324.28533736105254 243.44153239166786 268.80806207281336 269.7601269098113 253.38937827565167 259.10321906839255 285.45352059842304 309.2436806577711 247.6042564515548 263.6696866223399 281.05992420361594 261.0173830780223 287.13471788799285 278.94978048497734 235.00152612113433 265.82371912172766 234.16672330230463 328.8809333293819 256.30121213736004 269.72966566066384 205.95458283569423 240.32452589709737 251.58937978864998 229.04694228038778 275.8975327399921 295.0915854487478 213.51218640147826 232.14386142751866 241.54467871548545 220.8217058987521 284.26823890040407 233.48375426103553 256.9478400594667 237.55604346793092 264.51616784553556 293.1412732503996 280.65826024807234 307.64490028174106 289.0231924575036 245.32544376518095 273.9847561961587 245.17887659232883 191.2927824742691 258.15008970770316 251.64747067714072 256.5966599180837 308.1902957595287 265.4141319924025 305.90306016273956 244.7582167843414 242.93536823632215 295.1015781661224 301.9339375016916 307.5855003763786 310.72409520492204 282.6943263219638 248.8100118781987 190.0710908515127 211.118661170682 279.84529974727053 225.92371442192035 199.08535491363355 228.26652862370278 211.29990771338032 241.53690236744447 252.01154232325152 214.43867617854866 335.31801994103034 256.742241785466 263.2791321242819 232.75598022776305 280.3786504415026 195.30449627046258 251.55510240801271 259.28331834430327 242.2434391984105 275.19429728152977 250.01609687176327 281.31400215853415 175.54153142572792 295.4480835139233 287.8389565690327 263.5629531578784 216.8942060909149 272.2683599295838 223.561864974791 323.1698659229045 292.6168116344873 200.35094285581837 225.04299821810253 252.62203283827532 286.8127165862242 289.70470889401105 191.34900976939403 276.39742553056385 200.62616341072675 273.8535646804385 231.52793436349026 338.25273897848206 290.5772998131035 264.28105765934913 293.8063111148066 270.1112003647447 233.11802397212352 288.28459978088165 272.1635914500501 296.5435023217016 176.63038229042667 264.3328273596242 218.736621658135 214.2083465703042 216.94508720693742 262.15066020070515
res_4_block0_conv_dw_conv2d_param_0 156.3525168812071 152.4884252423941 155.88956961673392 85.01802470850082 153.05462051590897 140.8906369405314 172.6952669222736 159.57828022361713 110.93167708072149 236.44883617519778 199.68868565092063 219.3222032823604 164.1735153252166 130.30954168510578 194.17422862750303 224.06685873240818 171.69201026587322 111.13138217250844 157.47832283099154 251.9789973591186 242.98246499133535 307.51820080963046 222.86038744141004 103.16869994950767 201.10957101977073 126.19574845929357 322.17655515266597 116.95840943630355 184.99458805423217 166.27115046225612 183.67155036526452 141.501118119108 151.5697585846115 92.83640894674151 137.85679124939725 142.62345586829122 232.3344445705686 123.10439801512885 146.23117894354246 203.9936401893161 248.45950001101954 209.5960025882918 135.20656279392125 158.66960934717338 167.47435894110495 193.15345123753542 164.176576626279 188.22968882167086 241.5374499811992 162.18016245825626 146.94225125580178 165.80887843281783 205.85348188128665 186.01649689922513 234.74740651557323 145.72064492218738 192.1802641286838 173.54222018529305 110.01049823396174 116.99615874662113 158.62695388925584 125.17163871956502 201.84021336057495 192.8074654912146 140.9617743809976 161.19351015568247 153.661065113815 167.55066330030326 166.29254912979005 226.35950821269168 173.1221243833249 342.92561842345305 215.48149324269795 133.81642203337543 153.90056855712604 154.90154886541336 196.55996033941753 146.42524947263155 170.67660545626796 181.0110363982557 139.3216664513237 169.06753682982384 247.39697323657475 152.77289327913152 161.88593636603449 78.41210617144506 228.42334145664762 218.1535555993993 144.48625462270533 144.63581623276391 127.52938799246235 200.25822226838017 138.93138321824543 139.608251008155 278.05948447898487 154.8979903814796 132.00952259932143 105.51387344533772 188.73695717472427 191.50258766337708 138.44189320780404 256.6243505747594 134.88516101847708 147.4403045369709 115.34049578670404 97.3027856999724 176.7474952275334 255.74290731769145 157.82409706771165 181.23141830699728 283.01014885914327 194.11337564391476 134.36255178731545 119.96375210486288 159.9660798158282 231.43267351994382 202.82942065801942 287.57189370115935 125.58475875857775 186.41349480196897 178.2363755026816 146.55647201317717 180.66450726865716 223.13237363768133 226.47725896486165 203.0767102873145 197.93418092914987 138.20180529008994 161.95666594811138 125.20145650921036 159.8396096465505 274.3440049957832 194.28316930358898 144.73063297096104 171.9399158677541 213.164115664719 214.55277376114196 189.17424691661645 277.359838580628 181.1332933668707 173.324705655158 93.31294290887277 141.4587214910781 149.52919758076004 159.07459969233378 172.85756140229756 187.82770749601042 130.4457304972528 308.3316931087995 250.72166625442708 141.96386678370027 154.6426574389883 152.64884252449917 150.6272876976045 218.34480564942294 106.7661179171014 121.08990427976246 158.902438582383 154.1190896389999 232.91174238051764 186.003895707886 112.65581038815935 158.42285398352308 180.77569754799254 158.70168396673913 215.60335739971015 170.68241615142475 162.6148492621298 186.27290195992038 148.84329001147668 159.0570129620586 215.59336585184215 146.67682224078442 263.9398986373263 157.18672335021017 140.52036975337026 327.2292194062452 250.47747537523603 147.9068595685981 197.8445099312407 252.56004840907326 112.21351628710521 140.25535204500534 169.64170509343163 139.64502416729198 226.53772176059053 184.8603766552424 147.4173421688916 118.56821711379331 206.5161509933138 141.10076088357272 142.73439010188525 199.7903957810757 136.56557191491697 148.07422994961308 138.23019127180865 195.76321717000027 181.02501564964905 174.40561579967522 162.84973815106835 150.71565720655911 134.48451138472615 163.989149826537 110.7312382653409 141.96153997857292 130.03980107943633 119.71483559388257 134.94329365141442 140.88131200193808 199.73218813183615 158.25393355315663 116.8365937665258 122.41990400175767 142.43393654272091 138.29459157947045 106.02967667490505 255.89987615790082 218.85432842265843 148.12634895409153 165.0304966638489 185.67589210561334 134.5119087218213 127.19942842515083 287.90256607740525 208.2370856160963 128.00089198456232 108.98428568681119 402.3915344494895 111.5449152906169 150.3780918830164 130.19674405855028 201.3304981287196 209.73485232080802 145.77914857489287 277.1761153143862 163.97946980464977 186.34828106102142 158.40599988699657 107.34487369949208 201.66148344491705 220.93236682065628 153.21609970097532 128.2343573153186 186.35390394813348 172.9478631177843 140.3189275549005 156.62984576487247 181.77492668709266 101.8220793681287 194.06355414208358 124.31865809304027 150.1792095566326 141.89683617694436 118.62799881789925 150.74929979648516 149.08501122559795
res_4_block0_conv_proj_conv2d_param_0 192.490101971475 196.99086949567644 223.2321716536753 222.48142969077608 156.41964120274866 196.81178543137185 174.1215503186226 149.80945226097546 228.72138423090666 230.13412176560846 258.98802948227103 223.38872256781244 235.61150128315933 258.47229734741893 238.1341426464696 151.82279304500224 204.38654504231508 239.13421621295237 206.24225100826766 240.78886021224434 214.22710538298898 229.1219658125724 190.3964618373172 225.53513566838993 198.83428718818448 235.74922341959595 238.61128494594334 183.93988178745136 246.99833441528332 260.9245756727969 232.3805615833895 214.6399185726685 204.74432616238684 179.74277399449545 217.62616825484503 217.28619086026083 211.8776449324434 224.71297762832816 242.1168441203806 228.41215088513596 186.17913389696906 215.2367427315013 202.79455632412157 238.351062637356 215.33438903157221 273.5635622189922 241.6261688050864 218.5298017361103 269.8915955374984 210.29112031720732 247.07475046766297 166.89769492788258 202.62426801288834 260.698993717402 193.97278144130254 208.67809451726822 240.06582968931698 189.47730778875928 205.83743345347162 231.25860021188421 280.6546373800764 252.0031370493404 242.31647252331467 177.72404902656612 174.16733779239172 241.30575749246623 199.18784777371536 184.65622361613114 188.32546770988543 195.22472187868158 246.62098692311991 203.12505161050024 220.5519643267306 203.6215057758685 224.71698285534933 178.77674118849467 181.78412315382855 251.86137512325885 218.7919880499087 211.58962164330768 264.03465117499525 195.93618092688837 221.3957660512485 200.61583064749465 191.31957779622098 172.81970652938895 226.76206019419934 236.8307076256101 205.93380137939567 228.0205848233587 185.60441874293215 200.57568087222435 173.95829503913785 204.1015828337935 192.94200691680564 229.1157325052058 169.3699184607169 238.9783319638695 217.173418265853 236.11823895133543 231.29517656517007 207.57250422265125 192.7945031428205 171.92448836541837 186.91043449548985 223.36008278984676 178.86680301927797 231.57582071844695 243.35709013093867 182.78352309351794 132.91249796642683 222.8981093941326 205.87044781011008 203.82550553728908 269.88043409491434 202.55124553857678 230.42207027338247 229.62989811692628 222.84369873614213 239.04796124353928 226.26732277301994 167.33718871858443 251.4077626440366 158.99584001814787 216.9791095991199 208.51225259000364 220.5967879332772 245.3805364197882
res_4_block1_conv_sep_conv2d_param_0 250.35413152981457 280.1052494236576 189.63437549006014 291.22827405636417 273.9605015646573 311.40052970229164 229.54163258798334 206.41823752470142 204.13865827644335 318.14725169728666 219.9987105948259 270.62075911643547 241.14260893400848 241.04810890314107 251.23325027305188 241.57280370316033 388.894701880084 267.33715916951957 295.531906170186 277.73925749846154 229.4027914123706 214.31756422039066 278.3519207067168 208.87290356966997 252.0940749256776 379.1912649061297 228.7041253561449 238.63913183867834 282.4613197056244 259.5467443408334 255.17912929172587 271.8236370395488 237.78828346884816 242.53953643181674 319.13741522540147 232.88488513127348 182.72232824607505 307.66971069647553 274.6309220054145 221.12604385146503 209.57511883543194 227.1756377867208 345.1238996242717 195.78113302969447 172.20873151481396 167.15736311565885 310.2243462551592 286.3008836239533 198.2406561916175 274.71471626189015 258.65995102143484 216.82057675707122 257.06213647343833 208.27278794772113 208.42475128155843 244.47036842664454 284.9071259326612 284.6934136303425 220.09720236609718 210.8683343163995 218.16508146685703 285.9972547997381 231.833710436903 236.83631477715423 204.17733198614584 212.9464741109459 302.5701317447751 230.51273506802468 202.45740107510096 294.9315490123069 184.5349677422037 276.03591137728444 257.3140587284627 235.95408371976 291.98222705561335 313.26915630623745 205.5850251729212 237.85331771836096 273.78791927784556 254.48062044020105 206.42105718999855 220.19414395095743 250.80120095122192 209.7963721987316 211.75357829372868 243.46083693966298 243.36723567544797 304.9579064324355 270.74156012717077 195.15682723053726 248.93274011182604 232.87862357312133 330.27397947399993 289.44162495436524 210.54864936813857 263.3752826869068 321.79823944106016 265.14290720287585 269.17634800163347 296.9446487758997 149.94633855679672 252.0243003351285 197.3440949308645 242.86556012161137 311.01357715330676 235.2425862982289 171.1263166534871 234.2303836356047 298.6765770116312 214.52099821684428 201.80316527029817 245.90416010370254 186.91579621002546 248.28512046342377 229.79996581106244 239.92836875551342 223.8670809110996 258.33517708945993 326.7582787357635 233.69553622801823 213.30890925163408 268.23008046437513 263.36004752258197 239.8296616855291 198.88593892697688 230.48862228862708 202.38199978685697 261.959761198955 257.0393279721206 216.16943200783228 311.9884090074136 307.6735092420904 250.31369084995615 241.09210330980994 136.42496796676895 204.79877953483222 180.09507320973216 261.22822281239957 251.3083969445841 311.8693820556722 266.7262072572919 220.04226426286684 282.4093181141763 221.5570538106357 244.03888483946648 263.09670592978324 208.39350113913352 190.69765147337142 213.13204654260892 229.6271511651654 297.0605264397988 316.48043566541196 191.06155567413984 264.70032186453216 300.35924475532363 195.63047940661903 279.1875991655452 235.72783634538985 229.55449217403296 207.09059172796736 275.73916553921777 296.86122236039415 230.9721888947233 219.04079726620805 202.793185933484 245.9689396897109 182.40497428942575 263.15972921072824 328.53676024906855 223.33884772931836 333.38881691764374 212.89011238469777 293.2016196426741 211.9673742139538 204.35621961988343 307.19233040802015 217.2304321921336 238.82915578794385 314.2843914838583 288.8169840194156 203.7792274354662 206.52083492049647 349.0500561038894 231.19566676804797 292.3048189405049 317.44377588152696 184.6301902334243 216.65297853477463 172.68036132529164 205.86259102413987 319.2951150407521 157.95246658485513 173.39702288944468 222.84616925276006 214.42991442755627 218.53955177526566 204.97936955782234 257.682086305521 244.15924447111098 203.0356276089885 219.56776309382792 172.4329130197665 239.19628315671233 211.78559176484842 264.3936720177053 290.7962694883205 275.77737053341866 265.15599001278235 260.57372910613344 255.1812685753486 171.0005562497196 336.2359069576021 246.28947844167325 199.90642527353003 242.9932166926838 289.0971716743156 194.68612127062121 248.43079147360393 280.0681920020905 171.25820848556262 193.8327963155232 258.56321127573443 244.23223392670877 364.72015160481004 247.58546878593083 249.45018357778176 262.3015810310254 227.77042238901558 188.67171176978704 223.1840732504949 225.9548365292161 266.73270164096385 300.98528443920526 273.6400641646577 278.8861227380574 188.3185101856258 220.19607819226252 203.8351185793136 200.14834548166027 234.15936328011583 240.89048283659076 254.66946072736138 199.59659558012953 301.06885436772484 233.71214674274893 170.35292635254353 259.13356490733787 221.05660025789686 216.0149266502428 206.52433799636037 256.0000768947081 283.1712226502272 200.51112745409418 223.82312868430697 239.03929894283178 195.70693665881956
res_4_block1_conv_dw_conv2d_param_0 167.35540550751332 274.9780099560659 147.8024848112196 178.39493204862353 292.2351411182051 188.16208507016472 227.8478036444845 142.6024178020715 172.93771420325115 234.60643471746346 168.12241060944132 147.52226636499017 156.87986728682142 164.9172731881562 240.6190998837845 131.18442188615256 289.1711102823383 214.9672346208897 165.21448368439206 156.35492629905843 377.30567023704384 140.48888639799767 218.61289546452716 210.97266770058508 174.41749398827517 206.64894458736964 136.33152358319649 143.77648697752804 155.5031681841201 230.61595086499932 122.03407642527776 239.37471697426417 193.2402162629648 196.21473767420255 238.94410864427354 146.4159321383066 129.54219717786484 307.8275292649811 176.09986725811095 168.2550121395621 202.92388096488887 140.39364210528814 195.1060935513817 228.79518731576283 234.21310723249914 165.7099453976218 194.48879477007728 203.86004261462847 190.99373470371768 189.81085979953176 183.48094622389223 216.40244008833199 154.54323476647266 124.51069390937856 137.00363543678642 170.89641560548176 224.43239872606796 413.5515369603171 234.89859515475567 177.11504854086468 230.26138235302065 175.41304159549563 176.26210899743919 164.54266682646983 187.91341527698734 157.589158087993 144.99475177336817 260.87141735995056 143.2611573694219 171.06484853175468 163.0019652437437 274.7608045294969 232.71286571589653 148.42826402220365 164.71928901348772 122.93034502780651 115.01532068325167 323.62355708710214 274.7321968091087 295.75157442438825 142.5930175876014 145.22093778759802 194.76358667757833 188.134970783408 251.9914242516562 156.65724231148837 198.21966881683858 170.32306303365186 144.58923446925826 177.67412061290423 168.28305144342147 124.77567922223882 227.53426854152545 186.2224498102428 151.18688706238103 245.23669775919916 270.83468450498395 214.43041076377634 165.7604803686411 195.1226027794928 111.15795870218062 165.89297144425873 168.74518192262803 187.9836100878616 204.99027504133804 155.83422746184718 114.57539809547409 207.13516435197764 216.71842607586638 101.40510548678634 100.48523616152178 239.05756291720928 179.27236958115412 172.5450690943456 170.00792484917596 184.36473979401433 163.3423664678077 325.40284565891966 230.76628667114545 184.84693736000642 211.3849958277706 115.94742325084097 187.24339414734123 234.42845893707528 174.5792381856006 153.72430080436808 142.83762554398567 208.80995950037857 152.53226505470371 235.55305129108817 207.46197105122155 243.55080757189597 198.17459233980827 183.5654521678052 119.8738530525517 122.27206672165747 165.742763837616 109.33577151658577 103.374180509686 169.5173612558647 179.57763622536987 176.35709858147476 148.15258188835114 134.21327254207057 198.79427229405678 162.49739228583957 132.5535814523342 240.96894306819138 201.67043532836632 271.11922033132254 217.91535925857252 296.2778058738945 133.0404104578051 270.3900481737496 262.2391939889105 160.2123449679362 187.40994832718633 216.51753744079625 186.2501715031367 181.53340713244282 128.37767976375736 282.82708786940003 310.85710150663914 143.46173336289596 194.59714685478184 181.17361510633236 127.7559258196423 135.47312652873336 190.94325990339863 194.3915228874412 257.3247953979978 112.40108460098712 227.06698397193486 114.7053476314685 167.0590153183881 254.7227705414071 164.17901815895982 153.8155209765852 329.24811096649256 280.9228158092869 169.88068698340106 135.57187540125196 177.71238321369944 123.1104581807626 205.58097865976117 173.53176113559977 136.65611206036735 223.42964593213932 142.18718776319682 126.83165935334681 226.41083767931664 102.72006223254031 167.46500017998483 113.5726825128873 122.80227596476179 188.308341140825 161.93518705635066 177.65789880709337 186.0414282546019 187.25654235841463 224.96696373225052 302.44714760212315 171.91914765411394 255.80885960161555 165.2578592645144 189.45073962209727 134.1585968061825 238.1606004843676 343.13702369992774 274.62573633779107 272.59164143951034 259.17381640776836 147.57483559865253 229.73331543517065 193.92589135377284 221.41417127472846 258.9882026228022 171.91591564454316 259.39842342918155 134.57071440115772 154.39756234180402 129.40509740487295 210.3406529000752 211.23266553068441 220.62275879400158 185.76866792052365 274.26495546892545 131.01657425066918 217.55766118307022 163.39720623599217 190.83121192813726 165.55319962623798 240.2746061958793 253.651330293463 301.64156562075163 197.6061810752333 148.27123526538605 139.004327798968 244.8347438837749 238.35556878568346 237.48174833385997 264.08594796058765 205.94805334393212 211.1280539753726 166.13357279824558 169.53712153141998 130.1367462076036 235.31078301478067 116.43115473433537 269.9280262090492 310.1263632666642 221.0180087589545 166.58679656441473 154.19507706184544 129.29322397418147 209.63299745454145
res_4_block1_conv_proj_conv2d_param_0 242.6074169077514 229.62549312699036 234.58633922665462 242.46214713824523 228.7587341833036 258.17201653764465 209.03195764945073 182.44078715337147 208.7710452767347 241.43790723473015 292.56935964824777 256.2959402650749 231.7265793401484 197.19621023845704 241.42797662165697 237.74744952554425 198.84488260842787 245.92930710864786 230.57095567893566 205.51538389939836 228.84335077121492 213.1910321758697 256.73204861663993 149.44088237676706 195.89653141814335 216.0835611177329 177.00391780005071 255.61081340724874 214.47565174702962 241.76061743117498 199.95473249484044 188.11329494445832 273.79729526559686 200.72461414066584 217.00565005355105 238.61403727640152 216.98863336170564 224.65665887728525 233.25695682641003 278.1691146136324 243.16617819403865 222.3631317676297 237.21767035293524 190.09052374790613 189.52234074460966 249.9760585909169 213.76636721875013 224.1670465020809 156.92409608730867 267.643870801771 211.59752240874258 226.43812344820427 210.50881408522702 203.51554753989254 225.4765668362401 185.5621332117332 156.44888262778701 222.6704331824031 258.72391368796184 220.28187890043625 248.6027071909519 233.59179958986985 254.15524524171573 263.75232781739385 185.66594173486249 250.09307091579072 218.80162668716628 238.83477765521158 246.71173765151096 216.66676991364167 180.10056862481244 190.07841587465336 203.64388624802444 280.1655231901457 209.31971758869759 206.98831234069976 250.05867177665638 221.69368511496884 220.34238250751295 259.64414249054977 231.17271512711477 178.59642526591568 252.76480250963243 251.37658935604395 212.46526591782035 223.9979108870099 238.71851243199058 210.87136034725827 183.30488163161928 193.09878359099395 227.44107541185477 211.40638868634448 265.2553327900514 248.76719304542104 246.71853664981393 231.4437095012749 204.46295716625772 242.17719356272298 234.42128878179741 180.36718642598592 224.95622800211453 221.06148534775656 232.77777235173886 230.31820633603937 208.80404573154448 188.60172007931746 208.84598138103559 213.54721652311463 296.07860406731317 216.20834518871672 225.17646787781305 210.21958216085977 217.65335638400077 234.6586267484256 235.29002104761 202.41329959756857 208.20489480832936 198.14313391987815 207.83144118237757 225.4108265211482 202.27621352071 234.76251144776427 226.775696343076 195.6901127334025 234.66979162284127 213.93008592720395 169.29823024410354 193.2757645966892
res_4_block2_conv_sep_conv2d_param_0 267.937926915929 235.17603845188916 252.92703753023733 303.53117389084207 254.78327726571626 282.82370912212883 250.57565452063835 285.6692760986493 269.0150712123305 185.62275492712934 239.3672410624292 289.0212126171411 269.9621065925822 266.485120646156 203.17734886924475 265.60950472023575 244.8765854237098 234.40073504821115 235.71208542117353 260.60733691771816 257.0347233477167 266.2569957699168 269.4105439763938 231.39042474192232 226.6532952228178 257.06523787390665 193.6482292878271 228.78042288871052 224.24291874636515 242.29814806854606 279.36313892718294 293.48945358536224 299.8558751245555 279.7171949151146 230.0357324619201 289.1142356003207 219.66928897141224 218.58961567553754 263.65133438206203 265.48402618200123 161.26837164924663 220.27923718089744 195.4010714332878 251.35746209830646 210.4355482216141 265.5315858507372 255.8051895749405 338.936487101817 291.51021069337276 208.77495241166335 320.04184579187626 265.88752493740924 244.12257031062833 259.7183906382206 169.21323050168272 218.02955091184927 257.3080925729095 256.6426185538189 243.23149445079528 201.10731218769683 240.37156478517005 194.21084724511192 213.40406571226885 234.04552202967284 189.46349208607504 259.47406360158095 295.66471414573147 191.9297362913021 243.06556601696514 227.83679120537883 202.67191219473034 261.31147155368865 295.6992838816968 214.162357232227 322.19307044290866 274.7578283403843 182.04010509031536 258.0336990485044 258.203005092426 204.00485121631314 168.62775332035093 221.4114563118701 241.11834940520095 229.64888110233716 266.97823414109655 197.7095410919951 195.44534307264064 220.03601528547074 238.81424573616928 234.5715151972863 231.43996368574878 246.839123981518 277.62938706074016 229.28962850392816 254.80594613179144 240.98063474743196 205.67136889824303 180.46543051847806 222.1733057081694 228.9347450378192 191.01113064316868 248.24725431116693 224.39630625016653 227.095033234411 233.61221169695565 232.0141331428472 233.63293478681592 300.91620948687495 269.5282721742847 210.09755273129937 273.73464841706 227.89700716418236 244.03704009974484 227.29084489065443 346.57571587871365 245.050943001072 231.24640229893416 223.49039100158888 205.48622869341744 316.27134209109545 253.8656316513381 259.75674982100406 242.16216530759854 162.80970730177975 278.7911921509532 266.4593098340784 340.29953711449 316.9290080867449 205.05206181742346 200.682568454099 285.3500736776032 165.98417067175205 214.8114537399633 187.65097323777755 271.24227965291226 324.7242027387273 270.54995515184885 215.77379254081356 206.83560458339406 206.71514473218016 378.1332271835211 169.62231202943923 188.01771510323823 274.4476488214192 240.8830481115717 182.6822227164534 249.51760489117203 154.15960024981493 231.65827794495254 213.06661624095304 251.8086014589893 262.93023515815935 199.67420150943008 231.63158307267113 197.20730713480685 197.978099546065 209.14737311613823 223.74267664193152 238.77546690621466 241.8454649940898 218.61518334142352 253.94705278929132 200.51141049239814 256.6324023837461 230.04129567261964 304.76508607295557 218.36371412118325 212.50103417788617 282.8100823275225 204.0310671720491 241.0893207948105 278.00169120338086 218.90251259915925 214.11516119083726 243.45972420245386 200.99911853846433 161.42474824004978 246.6029760781831 283.07158539537306 324.7952592565493 227.1605730523148 232.45849531391403 246.04866938154288 222.809862833321 263.6348603247993 291.2922356915784 212.9690995333425 234.961799056274 208.45537858159003 247.3447903066488 245.9432168033642 206.9771128125314 227.38403625242103 239.318443975426 178.16732559752603 243.1373480524537 249.3306792125401 226.74420293965252 276.60823171513397 261.264882884541 200.6414283795977 305.86252908229676 230.71101505068924 187.718805531587 233.00312886159392 257.3922036140501 202.08524866549402 254.32406687149876 203.86509447258115 227.96035232911612 241.3233035018446 236.9845661861961 225.6888384511524 308.8697675075987 277.6849266294701 282.61217269969615 202.45034123901098 220.77063733483698 208.2670470662361 265.36116127880854 238.81831436272566 190.69778801257652 213.60332717731478 177.78974413190062 246.5631959918645 240.03172685560176 219.60804529640606 227.12885160899418 185.00449872067955 294.0748157086572 307.36919007878663 175.8057490542435 213.8204044481976 246.02574215674795 304.8883486983795 205.425051464571 191.31815195860997 232.17960515311418 253.71439539959925 224.86603609665738 180.81144114523468 275.0943331087044 236.09704648550323 288.13949658164165 219.21499847063353 219.71312010352997 255.30654030666648 230.937016175297 233.8034441764826 284.28921333368027 236.1893530767985 240.4435007438864 260.58666764507143 297.9994825199433 251.64298290576085 198.70891651695385
res_4_block2_conv_dw_conv2d_param_0 327.58934162459195 242.76812848179853 269.58549498528464 167.25299091277455 209.94560290082129 163.3612894178745 307.4423243648858 163.08583086381037 180.4294568850096 116.98788495195643 297.1610559387577 165.6635371044928 225.9603718435159 234.222787883638 166.3963504276101 281.03136127476824 129.20143253255205 124.16537727058437 116.3336894621116 156.2377769441341 254.10562733680288 244.0354748879126 157.44072600297872 126.9144584717513 140.41626353760398 145.27215671536874 158.07623662918115 143.69854621913856 192.0336800119472 198.98601508056728 280.16952025963235 282.74365643358976 187.94933507400808 212.93706777738325 125.84956807745888 202.8072381415424 115.80497733257707 168.519310932336 146.79284957632956 218.19613589091844 139.8086930469286 229.44024072684968 124.18429413503601 192.61899405402409 124.3861234379247 146.80163842452905 212.75946121203128 217.8007973568363 186.28738004950105 116.71221856620839 181.72595140587504 126.82993803703302 144.0490994541538 158.67708911419027 186.84079295599972 136.12433473720645 128.90655854528356 160.12400701546497 172.5787220076773 164.49802752737676 140.6943660353587 119.16409394847106 246.20728818518265 213.1334536287844 192.14030068193503 211.39619507840348 214.5374356475221 134.63631761209845 115.68119234824456 197.36370899264224 160.11404395890116 264.8494857221984 194.11553314968015 180.4127891765185 313.12213688349993 128.90567728969174 292.4597485762413 280.6092485536953 146.95617633418865 185.58552041874418 118.17014097405134 155.34607628579712 138.55424456756438 207.00279108519868 199.25183131677224 227.02452394463802 165.17212958379957 146.7106454374449 120.71423451475087 195.89811636995185 199.05667506756106 161.80578200854538 192.86694366332577 182.45584743664736 175.65782713729226 195.70228103100723 135.2994674841887 143.29873347760233 138.64520430373403 201.31031598169685 188.57516322052874 256.84454310058896 254.72860218056684 137.48741694206117 129.81598878274315 110.4451574866372 136.34530741464238 196.63935996190338 179.87096063989193 149.06062650327297 121.42855859772237 197.57591048123734 253.68436911577447 146.0264025520516 248.25526627676714 151.9569908883848 160.26417461529041 171.55019508773896 159.74508279474105 241.95028945488505 208.36800649814404 134.162651590525 120.25764486269945 113.1058196317179 151.76973807316196 176.25675784667786 312.2351315264723 196.32775348451455 176.37194493457199 229.44812244978394 182.78396213903343 174.08067933335968 87.1005426731279 280.3937966135843 303.570548773312 206.0994528664636 218.61249172651637 164.74617490335777 196.0295584485936 275.6901087948528 259.0080051307912 122.46292281968147 136.72815160421993 177.60851091213328 150.49683030207484 108.21367237303686 113.68373192681152 91.55286860348932 178.722606693266 170.85392077973367 148.94852612568275 166.57040046586724 216.321808557351 136.39369501611762 169.75066413840625 226.74012512330893 97.65306268173832 184.96531201202276 263.13850686421773 233.33609286807598 189.01591128246025 304.3977654039919 308.17418188802725 249.77878250121273 195.63874217532327 157.72915941205036 200.61492398414933 143.5654919648509 178.94700599559263 235.1441150857401 120.21297339322054 197.176775427741 274.23503906746726 176.0397344449407 282.69485141881023 302.81672310146945 172.18322301906656 212.76840567973193 206.90455637280036 190.8141392429447 180.14108672929723 177.48030471844464 259.45580104560116 118.4083125529882 181.53418045620518 167.20475658311318 149.62218752637708 154.66977858776255 172.13583040886962 268.6613007280766 295.52085959458964 274.1388566307128 122.61922388774335 251.9129497785911 167.5055623675484 143.33877853556203 140.47752138984177 178.97688830463022 145.7028778060729 168.96403496348336 148.44261696848585 250.90501130229046 163.05022547037785 170.56513043506104 224.92832464743356 128.79097524158587 116.29152971011202 142.45386773752892 136.98916331358086 124.40201340667466 195.32748510777952 192.23446489112942 196.76324033827254 366.3596052743794 179.84944687620256 173.5043757057475 221.78273476532496 184.78653278218715 220.46885026778085 135.94693013336567 163.8844593052126 81.22211610515303 304.9566843163256 143.7359158183775 274.95721600174676 234.8176971800912 179.99280706750307 126.57422358499511 189.79594721360135 178.66336626357474 216.38593539334857 106.64335131488197 251.89624228025528 128.912181707606 173.23251714209732 154.98841078329687 103.19404296059605 245.00664713779355 189.18729814503422 170.26859251980773 150.43322633287306 214.36931394078468 324.05284477296595 148.65060112023068 120.53819556331169 146.37164574005664 237.47288156372528 188.44802433976616 260.2043284743972 149.18907485828237 169.03620475318186 120.56624214259264 176.26683344418743 242.2920037966964 218.58609498305032 173.1032353317041
res_4_block2_conv_proj_conv2d_param_0 176.7185871778516 170.63480745761632 225.47687702293112 237.32179834290696 209.30871670381075 214.90871445297338 237.46409485072138 204.11110461833627 251.0110367006079 192.33769728952436 228.23809144814044 186.07592087740727 215.00641041488836 224.25677286142337 242.44959397467866 217.1127838763752 222.47355473285035 241.53698450934937 245.9981612827287 218.10971928861252 212.5940710708804 218.9670762151521 251.7423457301522 229.10299593170564 167.0025674597965 247.37770003637453 250.36195647167312 215.26114056640372 187.8735168093253 173.0367274969286 214.57597952677213 209.05016943638256 218.08679207856136 285.765768269299 194.0828397020131 227.579520361614 251.52499117003214 172.1147506831619 249.3693727771205 202.3608759643739 260.8411261736025 167.24755577701313 270.47257879408465 216.3911656366951 202.68319049223035 229.13746431937065 204.9028863071778 208.78775902043785 156.0705893710734 241.4085281182813 217.79999587032748 223.31728902622135 202.26809103527023 229.29406996767918 214.79449792252703 196.13903874947127 145.85362219295772 253.83798878288943 255.43548723929342 253.55075682417421 214.35954426777326 230.24657737934433 278.7880003370515 255.64534621470676 195.78948049370373 215.62177219775776 206.46394159375885 187.60998021855215 224.17407479418594 235.9052055210088 221.19077784548563 199.8832460971195 210.026021975041 215.99368574924452 244.91903247446214 183.04816342001357 230.00722522979603 226.11028783316598 162.49025435096905 233.29631378264955 226.2702782722038 220.5311228743915 215.2521375128376 217.8588762986168 207.51977962278204 208.58479768255913 264.3777119355003 264.0734941817437 203.63687965820225 210.9695760947151 237.01968057225392 236.63246947064985 269.77114177913955 211.58953759578327 224.4870440696859 219.53389674735968 264.7040378145354 195.55673817448377 222.87094736864125 267.5730028985627 148.55587296618268 184.56351618120033 209.2610869640371 176.5263081150656 230.97166310260772 257.24190856090087 285.5821500905451 249.8925621211073 212.9617132836554 188.99733451318454 170.95274250472332 154.85721462227949 261.2797964998644 241.91608862592486 210.7876443812357 203.77950028600964 252.58133528313633 190.02510193071947 197.53980678853645 224.52657270868622 207.44209606330475 246.43820343888225 187.80222890525567 244.63583355903936 216.16951973318308 219.09629524059542 192.46883666412324 239.32220722991923
res_4_block3_conv_sep_conv2d_param_0 345.95492078269973 203.79552179176537 155.01625108439023 259.507878233235 227.94757317927332 227.7511157173556 260.60719348047337 289.163339947957 256.70320587084376 239.08977975349825 234.68731641530772 248.8926991500621 313.35277515715757 290.14242250148664 224.28798039215067 260.2154348187156 241.4925812687463 249.56416088154785 321.78681865071195 189.92706205997547 283.36366052558765 251.15998407725712 154.9674779470024 206.38376784506627 246.23872915451048 187.77862723107074 192.74472857377924 175.78229625914094 237.25282743897998 227.27309819753253 227.12703576395234 233.0554001213455 208.35439560735068 212.66780783839252 208.67241301637134 269.7425903616593 221.45589344040624 248.02468808431627 237.2816265040115 219.54020771921523 267.1154262485277 234.441742937666 208.98666754026172 265.24258687362504 210.18490948522265 237.73575115601128 215.20526421575607 217.65560198697605 274.349798220176 245.62774050712804 234.14930190047514 229.25101969431066 213.50617444525088 220.35190756313472 265.3219385664577 251.62883707132175 305.27021597799 231.8982789492679 223.52567673566006 197.72440213534657 216.63399072320885 203.852455545479 301.79080112347935 243.04582507004358 214.82858551527147 268.8533430071623 271.15042758525726 249.15562865855233 197.1458518674579 182.498120121721 250.30957398630332 304.1296218888167 256.518286970585 224.2650814312294 217.57707787932887 173.9269982259614 191.93113668163443 224.78978910736558 252.41670250269334 221.8618525486859 258.819233222246 197.15329452829317 242.7463339797587 248.22680734246785 172.04863890049407 215.88478776239796 240.04889876055287 205.34152653862807 238.465582302722 277.40737854268804 236.95207092504444 282.91152644893464 250.0904877166468 324.4253191370468 274.7378647386549 270.2655667333989 247.82477130624207 172.95274849716958 201.86011942178007 319.7582096775827 295.62549702901225 166.06686253981067 262.78999847003325 290.45179342228937 230.58467947073146 195.5485361712305 253.65069617721568 214.32161704653893 273.9083079055867 192.57388743205888 253.66011765927192 237.02687872463528 293.58220004658557 173.15877499171268 253.29906948804546 257.03108007494615 209.39027410811136 259.7839864937607 371.02164324113863 228.00216284122774 202.2348973974449 213.94449950824142 192.64609255646207 237.19057665956927 167.18003989178172 265.4344168623285 281.00864111821767 178.48733067964037 264.5462675833901 274.7233942696873 252.70035037799386 281.68153227310773 218.89650809396855 233.97176183378315 252.23759201252008 235.33895654818977 187.66257548161988 234.04734734874378 177.65391417741824 185.96469029340037 226.94267294354526 205.71004963016327 223.3765913319409 277.37180779950455 236.85258491684783 229.2600971460771 247.3465418255506 264.2003616484952 277.0365734110573 217.7721923932353 228.19186865304124 264.2953996713156 272.4547426891574 257.5070669505476 191.0130998713913 225.05569147722045 295.1405541871546 210.21568298777473 235.46889155566922 213.13447697585426 247.02782976266525 185.73066249954346 218.28025062967828 221.13963025673374 244.57043474108693 253.66461726783305 271.8665922109761 242.70441545967898 289.78217060974094 257.8750386381741 250.47691591867866 183.60892098653025 209.80982092514557 254.16359762494275 285.349653314677 218.5320878741057 220.13383543023085 205.2736519678446 223.43402728367982 216.14432355308668 235.18333272993303 271.4170600272295 232.5588161812947 262.31435264646217 173.7772589568584 223.83852998820038 263.54740289024306 232.45872356358683 211.04689343417039 231.02720999406793 337.0218556597973 263.61509417341506 236.39004872680152 201.16258272074617 239.3449774438793 182.88711786582957 215.50736340731012 222.50933336480153 254.37074851473753 213.54535452310486 259.87100791947404 250.8666372398372 345.4422747792314 237.30942819593255 252.7910424422386 259.16439069883984 176.86499846684814 363.3874684145323 304.53518105367255 284.65210906710485 223.20457742421416 278.9598237925028 243.6826414583356 264.53560955521044 153.8812732320697 208.72813778464555 230.0227692382099 304.664247557578 199.14286969364412 251.56341841858506 246.12083136771474 232.80513907024854 222.0732252643463 233.4989017135548 279.3742193718891 210.05153054122488 223.54530558373716 185.0754946261646 302.42330107229577 237.24508723103742 238.34573013756156 264.57864106676016 295.6914459985534 210.34272937698285 187.1348562231264 194.1389858553315 205.70816291203175 162.447885774634 232.01739226828084 203.75845396121898 246.36824813475505 263.3616425746968 230.56491772805887 231.62740311210538 191.0721442010582 263.3809149353413 130.98251354604807 295.0584651453114 228.4005696758452 202.94170113150585 222.78672890637318 284.7205762009755 272.5023758677218 215.64935664178682 199.15275344885038 219.4332417031272
res_4_block3_conv_dw_conv2d_param_0 210.44853858860145 225.47501591558643 106.88245443551567 268.34409223190465 212.25687158004925 160.86972158908634 196.98231001207387 197.66629165815885 254.70348083346255 251.23908616082082 178.3084334102818 222.59583041773757 210.91991392965073 169.80956727820083 274.06852670057003 218.32413315119047 138.01377179870323 207.5416506110611 286.52778603121084 211.1722887926694 106.7938909688137 167.85614093854517 236.7430284238553 154.40201534348637 204.85968274198672 168.5148993706434 131.67708601904667 287.5009235434979 146.85311830872476 148.07576324600663 149.2856689343325 159.3065592653453 127.69158981392515 179.87882651855193 263.41238507963175 188.65158237710725 162.0053191598559 142.32041708366194 196.76520276026383 157.17798045457474 174.75413822898244 153.34074344883572 158.03435670042288 278.2371505217045 143.52943880475442 208.88111468280695 140.28595494073764 186.9223061056482 201.66608335399016 236.20914806323384 141.06345996036305 177.16022929072432 281.83362223826833 173.01664883345458 185.42196593161225 307.07383628418 248.72848286823103 163.69435321104476 172.76911905854047 213.65831038270764 163.86360024939 133.3872317872702 297.2889237920904 114.27500790006 211.51646253657375 155.12307060484565 189.62526202773378 180.97904142128638 129.11992688296397 168.60002595421298 149.22803820175818 203.72796399054326 205.94640112964262 240.6522282542279 197.05525336048157 151.0139515434285 189.5643087436062 147.38074570129837 248.6249567967746 156.52252846553438 225.26840945462627 198.7287657597722 168.05317932041163 234.68723886621305 138.9168813785635 136.42718669895612 206.97956574736037 108.89543412283093 153.47768360397677 190.5105377303966 343.11790477609117 218.78313652973227 147.88685145700072 255.23589357868104 194.17063653457083 215.5344389247932 153.53656410317754 149.84542078291412 80.80654878839465 231.70853640076072 156.21029785438944 102.257187640677 225.47150852756343 248.58562382121397 188.05878692695728 218.87222356846215 172.0205112869803 146.04137577455947 221.90092419732346 154.56645260144487 133.74566267897774 151.29490580718752 110.37773616241802 331.0423011029376 223.75322636014448 231.52456318573883 144.0420490374252 216.10841434796504 215.23637310986882 139.12567881268635 174.44399731723675 134.35325764207118 294.9955141628086 260.6096638106346 228.28560481842206 227.41641156621415 183.29426921319364 149.6756860038799 315.84670207868663 258.6835662554881 266.12756423507136 153.62706308438692 128.7857596393647 228.11808787792683 144.2770414188362 150.91867896867046 165.27057512388663 299.8004359735517 247.21860268248835 184.30734417612348 203.28396366564138 121.13491319723572 174.8540663521048 219.56215191486945 159.3915887247118 143.36306325442928 142.2571143865393 211.66773064803786 176.0136019186887 142.0594546392203 149.6792504244248 138.97649323454533 178.29773514778574 264.0194541367487 218.0431387842896 159.10083857918235 203.48678204202815 139.5309706806415 140.76517516943366 105.13057733865858 214.06374915143826 230.01437620596064 145.66343296234515 197.18597226911163 100.23949918320133 260.5503250877339 144.41559792194533 184.87192510466747 189.54668632791345 138.65153779298808 133.22188288652 152.5371789548439 185.61297194418788 240.6602739274233 246.1969613653231 174.30260614617913 201.93168745652326 163.908463242213 274.0382830595863 224.1241551716648 193.26075837952064 124.48479691576365 203.25797811627825 242.30128920681622 183.24751351926875 201.98672278076683 196.1532673501032 253.80826580757824 322.98483838831555 265.00859027223527 282.1407051192288 209.14273352172842 191.67172212388934 168.03214674673805 166.84261019139274 125.43351060886314 182.2466479873041 74.48285945081057 240.65747418957227 133.6268490129034 184.00272130109835 122.07625093259969 210.97653233534584 170.337046968738 186.3058840111876 109.9294482803809 119.00382875385657 225.30106653673326 203.87960776617538 240.3175868474143 324.288150619497 203.99074974105116 167.6863098907945 281.63089690584974 144.14420140483853 189.10718831467193 250.04928116476353 148.91209181125745 369.79557206414364 147.94764195487218 154.9573686344455 139.0164443032268 245.3136938671186 201.14535844821643 168.86925167061727 179.9958481206934 172.72225749830153 171.0786798164621 241.5211047797389 187.20425665013724 219.16514368249406 152.54077176219462 252.43712780090095 212.78247189830813 116.97809666280456 152.98089500051157 192.47798208307938 221.8442967384187 293.7169859906229 193.2554121011608 173.31475212616385 345.60650368261133 267.1956010860847 252.05441197990052 161.78930611375242 197.82652670515424 131.51827704725662 235.3480286141338 136.25530920563722 155.51270186866483 188.6354485547436 244.77382206615502 306.8982666356989 163.79581664271788 152.2369977157017 173.0714440858351
res_4_block3_conv_proj_conv2d_param_0 202.4097230851074 178.0619239454666 188.63222546135168 254.60029171343496 207.3712113529337 235.03372189286125 228.0763324982584 178.3061504097004 266.01195720575055 250.50059194944058 216.4528488347523 279.7196736057906 194.4391530118449 234.11369516482569 263.5559765005804 218.80513185672748 217.14865144439545 205.33129599148882 237.58266440119917 240.26913309304612 245.6629139589773 236.49326750418942 221.13572858434537 222.11813684445792 266.03058974222756 250.19133079733612 158.2301470480665 208.16313484704057 255.09488532527612 202.60020388325236 218.3053657344088 211.84158071699613 243.8215932108702 284.5973970776863 228.80204199863732 244.12645820061687 200.30920420224072 145.62561187757916 257.8852759534779 250.85786514208212 274.3877781585309 262.55401453081197 205.66112530957182 196.83485774343333 262.9022050428654 262.55731457184385 219.77272225141812 201.86646877047897 238.32970741137493 233.42014107267335 183.71535458068672 255.88521696585804 269.9168788495928 219.74790297994872 229.75248894184026 233.5071415248243 274.8803482624291 217.58325462596616 245.71013925185426 278.32839555666067 220.2553279465509 209.9551812519566 202.57913079011897 279.3004822759034 190.35204990322958 213.05151117429654 221.6979294451877 218.3232606967777 204.93459627371607 217.70096864224564 253.58905106066243 294.2080232372133 243.02431330754555 248.75270072794999 237.8737378451096 204.63096640036326 219.49599331140337 217.1556006346587 189.81545916503364 285.057533365424 164.07081289384635 217.2907556100812 240.84394846789257 233.58270877069893 211.7118763774098 212.94496308278855 216.43802934820525 239.84423983270952 233.7365541278341 248.61932874967505 227.62860806600023 235.35223995406741 189.9132314761402 197.544367105249 235.27547166477845 236.18822727120562 221.3402008458625 259.01301133170904 166.85349356816846 216.36609353400712 223.65920683359897 274.61487007902355 208.54459975159122 258.9796088358612 204.52674303639753 272.2470867081418 209.39085027542964 226.3033226457282 214.63498885275442 232.39518601920366 173.02114470028016 194.31477841187294 196.98999530154347 175.38660393474916 244.19898025142552 229.37826824290232 272.17755012713695 234.20512644642415 154.32685223351717 254.0340989107339 196.8400583968471 184.50650801943206 263.83778142653006 222.4264560057415 274.6956974032394 220.42446628670365 232.57061984953194 192.93169928787438
res_4_block4_conv_sep_conv2d_param_0 278.675148312619 191.27990277943485 241.55872669787826 243.22133245665702 246.43147688539403 199.15003578371477 259.7714759174147 187.47064545155635 246.32287679095683 240.94439150953744 174.08706549345285 201.63594917657605 202.88143055400164 261.3882156557292 233.75522203881508 196.81769390068362 204.8669116177947 223.1835355634511 266.28537978076855 229.75432223542182 218.72972809000876 223.0847152932712 277.78913681787486 179.87606275306206 291.6591087895321 280.8688984737859 210.53204776801329 284.5700299661073 254.99806205887546 195.4464725306669 237.37139760719836 229.71795912052582 180.19062854262697 166.52202539627112 225.7205175909347 220.0531042400192 174.87668362517525 169.34562083497224 212.87267161539768 232.13554051181663 213.46206859518298 226.8889759465614 196.3693151268706 186.15146587175184 194.72061984338504 202.80801029732743 237.6918593768023 177.75334630697202 240.3174784279425 242.7758460012522 281.49676399262063 220.58552894142352 258.1260088941568 256.7695306700499 204.90245280199196 185.6470632312494 287.0012070258847 269.32746857592343 232.24332862424447 210.75203362685085 187.2711079267023 193.454194430548 264.0467577102889 202.96822457113126 210.0884171102779 169.0041872173985 234.83262998746432 263.74390466182376 186.8017416774758 220.23076376856727 229.29152844236225 225.80974513366473 218.26544817268928 219.11348639591847 221.12900426035546 292.27079774035724 217.5255446008714 235.0073321139798 203.47092562327882 207.74803467754398 252.32840038938062 215.2226762622135 212.32584659531295 221.95603144188794 260.76963366548205 242.26040567097073 233.29347841201493 281.55348978200584 203.9800284558317 233.70358485541286 221.77938747563837 213.61598344413454 228.05943934388608 234.89957921715518 209.6955513617228 222.3975517242099 233.9124533112394 233.91933556438153 237.0418565014988 290.0380765879527 197.34135329432272 163.1456699530258 165.7100742741622 207.467889847512 232.96776795093947 222.52673895030193 260.0201713636001 224.7002519077634 249.4427659533369 227.4688286335492 199.1550430462227 233.7913098187994 278.5297787200205 238.6511331274371 214.82579139830327 222.02756834853233 253.41189018748165 257.1754016158296 244.0637356426708 175.1675116587533 285.878760507928 210.94254929147297 214.27639791872846 286.20535612223335 281.84845998397566 231.92281381270507 224.5453365329744 186.08172235331926 149.03442547042192 256.1539741976173 195.01555689875403 236.0441865584281 229.5730174565257 229.35779923960266 190.73121186416705 256.7813824117275 193.3616042566831 192.1622906520051 219.98035824055063 199.90025488683204 213.55883870528027 206.47332493242905 224.88801355888984 268.7950402689885 175.99720215927357 221.8325405189077 247.19428110152234 284.24863269042845 286.56846123677985 212.55852594344447 247.12971446612048 263.301678652807 171.40395334016685 150.28900459421527 200.06449067417032 232.20842569548975 236.28026456390026 264.0925271720606 208.0698507920927 239.7597651988519 214.44711489638544 275.0122594150144 242.26522612508816 208.4236299467082 216.1866494721671 200.25558727567415 205.9550008965255 218.02051557956375 165.47316445289604 267.45064796053333 227.82504902495407 266.29657865483205 212.84145552069532 271.8853947886642 199.14674117955605 218.9754475278572 235.02871826730296 216.90593048158937 197.59315185581855 210.66991208287715 245.92675243779192 217.16117801353414 190.18204402013296 260.9424543837361 267.2285257281146 232.4624770669427 213.77717676922228 239.69449332053438 287.23835946369485 228.00440747978897 193.04689284865213 178.43727141117267 207.1387285743256 225.81383741728337 215.31291186415328 258.4149934335235 241.07009046182426 261.404041316117 219.48348985833175 184.33350984840783 234.61762046015394 173.66029696823634 201.54011025791326 291.1372274670277 187.05388016894233 221.3462022001374 259.00451035051566 137.9216921484752 240.53163483237964 213.64155753419863 185.6671227799984 254.6802822451911 200.6546737556213 298.1541466418054 188.5769657122319 195.1541996540413 214.10935189886698 252.8008200844763 216.12178573446343 230.48096809719047 256.2374863475511 259.9706162225714 223.034999442074 164.1712763467251 231.80768125675132 223.7212278328233 244.58581955229693 233.98584207085025 224.2309777312486 185.25607394987676 248.93748074441044 207.25710220875465 224.03839817497632 209.39192030886173 238.8424880750062 284.04435061794493 253.02540399687967 332.9622111611934 262.79447128081483 266.00777271691345 202.80140855513451 230.45377115848447 273.420229725169 208.73167524713523 220.81456586186235 245.48084029380652 192.5544307357406 230.2475477310792 215.30416555260967 243.28373383627272 170.65421405389716 228.64743245386555 181.82984014349043 212.07146847627405 224.0738807434599 173.40313319398948
